unsigned char g_model[] = {
  0x20, 0x00, 0x00, 0x00, 0x54, 0x46, 0x4c, 0x33, 0x00, 0x00, 0x00, 0x00,
  0x00, 0x00, 0x12, 0x00, 0x1c, 0x00, 0x04, 0x00, 0x08, 0x00, 0x0c, 0x00,
  0x10, 0x00, 0x14, 0x00, 0x00, 0x00, 0x18, 0x00, 0x12, 0x00, 0x00, 0x00,
  0x03, 0x00, 0x00, 0x00, 0x94, 0x48, 0x00, 0x00, 0x34, 0x42, 0x00, 0x00,
  0x1c, 0x42, 0x00, 0x00, 0x3c, 0x00, 0x00, 0x00, 0x04, 0x00, 0x00, 0x00,
  0x01, 0x00, 0x00, 0x00, 0x0c, 0x00, 0x00, 0x00, 0x08, 0x00, 0x0c, 0x00,
  0x04, 0x00, 0x08, 0x00, 0x08, 0x00, 0x00, 0x00, 0x08, 0x00, 0x00, 0x00,
  0x0b, 0x00, 0x00, 0x00, 0x13, 0x00, 0x00, 0x00, 0x6d, 0x69, 0x6e, 0x5f,
  0x72, 0x75, 0x6e, 0x74, 0x69, 0x6d, 0x65, 0x5f, 0x76, 0x65, 0x72, 0x73,
  0x69, 0x6f, 0x6e, 0x00, 0x0c, 0x00, 0x00, 0x00, 0xd4, 0x41, 0x00, 0x00,
  0xb4, 0x41, 0x00, 0x00, 0x24, 0x03, 0x00, 0x00, 0xf4, 0x02, 0x00, 0x00,
  0xec, 0x02, 0x00, 0x00, 0xe4, 0x02, 0x00, 0x00, 0xc4, 0x02, 0x00, 0x00,
  0xbc, 0x02, 0x00, 0x00, 0x2c, 0x00, 0x00, 0x00, 0x24, 0x00, 0x00, 0x00,
  0x1c, 0x00, 0x00, 0x00, 0x04, 0x00, 0x00, 0x00, 0x16, 0xbd, 0xff, 0xff,
  0x04, 0x00, 0x00, 0x00, 0x05, 0x00, 0x00, 0x00, 0x31, 0x2e, 0x35, 0x2e,
  0x30, 0x00, 0x00, 0x00, 0x94, 0xba, 0xff, 0xff, 0x98, 0xba, 0xff, 0xff,
  0x32, 0xbd, 0xff, 0xff, 0x04, 0x00, 0x00, 0x00, 0x80, 0x02, 0x00, 0x00,
  0x9a, 0xf8, 0xec, 0xdd, 0x2a, 0xce, 0xfa, 0x94, 0x16, 0x3f, 0x6c, 0x47,
  0x01, 0xd8, 0xe0, 0x23, 0xe9, 0x88, 0xb5, 0xa6, 0x3b, 0xf1, 0xe3, 0xc1,
  0xdd, 0x1b, 0xf7, 0x1c, 0x2b, 0xdb, 0x36, 0xdb, 0xf9, 0xa0, 0xaa, 0xd0,
  0x19, 0x0a, 0xc7, 0xfb, 0x7f, 0x31, 0x1e, 0x05, 0xe0, 0x31, 0x03, 0x12,
  0xf4, 0xc3, 0xd1, 0xbf, 0xaa, 0x39, 0x26, 0x20, 0xdd, 0x23, 0x2a, 0x00,
  0xcc, 0x1b, 0xd0, 0x2c, 0x40, 0xcb, 0xd5, 0xe1, 0x26, 0xbf, 0x1d, 0xc9,
  0xce, 0x5a, 0x71, 0x6b, 0x0e, 0xfa, 0x3a, 0xf7, 0x10, 0xa3, 0xb6, 0xaa,
  0x22, 0xe1, 0x16, 0xe7, 0x36, 0x68, 0x01, 0x29, 0x22, 0xc9, 0xc9, 0x1d,
  0x33, 0x9b, 0xa9, 0x97, 0x1c, 0x2c, 0xb5, 0xf1, 0xf6, 0x22, 0xef, 0xf2,
  0xf8, 0x3c, 0xfa, 0x5d, 0xd6, 0xc9, 0xef, 0xfa, 0x9e, 0x2a, 0x1c, 0xec,
  0xf2, 0x2a, 0x4f, 0xf2, 0xdb, 0x1d, 0xaf, 0x26, 0x17, 0xe7, 0xc1, 0xb8,
  0x14, 0xb6, 0x24, 0x81, 0x28, 0x33, 0x66, 0x41, 0x0b, 0xcb, 0xbe, 0x01,
  0xee, 0xb8, 0xbf, 0xa0, 0x25, 0xd8, 0x23, 0xe0, 0xc2, 0x4d, 0xf1, 0x39,
  0x38, 0xe9, 0x61, 0x45, 0x15, 0xaf, 0xb4, 0x87, 0x2e, 0xfa, 0x82, 0xd8,
  0xfb, 0x42, 0x35, 0xdd, 0xe6, 0x3b, 0x9a, 0x44, 0x01, 0xbd, 0xde, 0x04,
  0xb0, 0x38, 0x07, 0x0e, 0x0a, 0x30, 0x74, 0xf0, 0xd7, 0x34, 0x0c, 0x38,
  0xde, 0xca, 0xb3, 0xeb, 0x28, 0x98, 0xf3, 0xd0, 0x14, 0x57, 0x48, 0x27,
  0xfe, 0xc8, 0x0c, 0xf9, 0x24, 0xaa, 0xbc, 0xd2, 0x53, 0xf1, 0x5f, 0xe1,
  0xeb, 0x51, 0xf1, 0x44, 0x43, 0xec, 0x75, 0x38, 0xe3, 0xa4, 0x92, 0xb7,
  0xfc, 0x0a, 0x04, 0xb8, 0x1f, 0x1c, 0x30, 0x1d, 0xe9, 0x2d, 0xc0, 0xe3,
  0x3c, 0xbd, 0x12, 0xf6, 0x96, 0x2e, 0xfb, 0xe0, 0xd4, 0x4b, 0x6f, 0x42,
  0xc3, 0x31, 0x4f, 0x16, 0xe4, 0xbe, 0xb9, 0xa3, 0x25, 0x81, 0x7f, 0xdb,
  0xd7, 0x5e, 0x6c, 0x3b, 0xf2, 0xbc, 0x0c, 0x1b, 0x33, 0x9c, 0x93, 0x93,
  0x34, 0xb1, 0x19, 0xe8, 0x1a, 0x33, 0xf0, 0x09, 0x50, 0xf6, 0xa9, 0x0e,
  0x07, 0x81, 0xa4, 0x81, 0x26, 0x22, 0x79, 0xc8, 0x2a, 0x1e, 0x09, 0xea,
  0xff, 0x30, 0xbd, 0x3e, 0xd8, 0xa8, 0xce, 0x05, 0x9a, 0x1d, 0x87, 0x08,
  0xbe, 0x1b, 0x70, 0x34, 0xdd, 0x3d, 0xc0, 0x15, 0xe7, 0xc4, 0xa6, 0xbc,
  0x1a, 0x95, 0x92, 0xdd, 0xd6, 0x5c, 0x4d, 0x23, 0x03, 0xc6, 0x33, 0x24,
  0xc5, 0x9f, 0xb1, 0xa5, 0x37, 0xd5, 0xca, 0xc8, 0xdb, 0x5b, 0x12, 0x13,
  0x3a, 0x12, 0x40, 0x01, 0x27, 0x81, 0x81, 0xd0, 0x13, 0x16, 0xca, 0xdc,
  0x26, 0x2a, 0x16, 0xdb, 0x06, 0x29, 0x44, 0x56, 0xda, 0x97, 0xe1, 0xf1,
  0x81, 0x18, 0xe6, 0xcd, 0xb3, 0x31, 0x47, 0x1f, 0xec, 0x35, 0xe8, 0xfd,
  0x1a, 0xc0, 0xd7, 0xe0, 0x06, 0xb4, 0x16, 0xf7, 0xba, 0x4a, 0x4f, 0x38,
  0xe7, 0xcd, 0x14, 0x11, 0xf8, 0xa7, 0xe4, 0xc5, 0x36, 0xd3, 0xa5, 0xc5,
  0xca, 0x53, 0x26, 0x23, 0x3a, 0xf4, 0x26, 0xd9, 0x02, 0xb4, 0xb3, 0xa9,
  0x25, 0x19, 0x65, 0xef, 0x05, 0x26, 0xef, 0x1f, 0x12, 0x39, 0x07, 0x40,
  0x05, 0xb2, 0xd3, 0x16, 0xae, 0x3c, 0xd5, 0x09, 0x18, 0x2a, 0x60, 0x64,
  0xd9, 0x44, 0x2f, 0xe5, 0xe5, 0xe2, 0xaa, 0xc2, 0x17, 0xc5, 0xc0, 0x02,
  0xfe, 0x4d, 0x32, 0x38, 0x08, 0xb4, 0x86, 0x22, 0xe4, 0xb3, 0xdb, 0xaa,
  0x23, 0xd4, 0xc5, 0xd6, 0x34, 0x47, 0x15, 0x38, 0x46, 0xf4, 0x41, 0xe1,
  0xde, 0xbb, 0xaf, 0xae, 0x0e, 0x1c, 0x27, 0x14, 0x2e, 0x1c, 0xde, 0xf8,
  0x0f, 0x12, 0x57, 0x11, 0xf3, 0x9c, 0x16, 0x1e, 0xa6, 0x3d, 0xee, 0xde,
  0xca, 0x1c, 0x2b, 0x2f, 0xc3, 0x20, 0xeb, 0xe8, 0x15, 0x02, 0xb3, 0xba,
  0x0e, 0xb5, 0x09, 0xdc, 0x02, 0x61, 0x3a, 0x5b, 0x0f, 0xce, 0x40, 0x11,
  0xd7, 0xb2, 0xa5, 0xec, 0x3b, 0xfa, 0xe2, 0xf3, 0xea, 0x55, 0x19, 0x59,
  0x47, 0xf2, 0x18, 0x2b, 0x33, 0x94, 0xb4, 0xd0, 0x0f, 0xfa, 0xcf, 0xcc,
  0x2e, 0x3c, 0x19, 0x09, 0xee, 0x05, 0xea, 0xf6, 0xf5, 0xa0, 0xf9, 0x3e,
  0xa6, 0x20, 0x3b, 0xe7, 0x00, 0xdd, 0x52, 0x41, 0xde, 0x06, 0xf7, 0xce,
  0xde, 0x0b, 0xd3, 0xe0, 0x0b, 0xb3, 0xdb, 0x3a, 0x31, 0x20, 0x08, 0x32,
  0x04, 0xda, 0xf9, 0x2c, 0x16, 0xa1, 0x84, 0xec, 0x3f, 0xe8, 0x9a, 0xd7,
  0xfa, 0x29, 0xe8, 0x72, 0x39, 0xf3, 0x04, 0x22, 0x22, 0xa6, 0xd3, 0xe2,
  0x3f, 0xf3, 0x9d, 0xdc, 0xdb, 0xff, 0xe2, 0x19, 0xe8, 0x07, 0xbd, 0xba,
  0xe5, 0xa2, 0xda, 0x53, 0xbb, 0x16, 0x0e, 0xbe, 0xf5, 0xe7, 0xf7, 0x32,
  0xb7, 0xef, 0xdd, 0xee, 0x28, 0xbd, 0xff, 0xff, 0xc2, 0xbf, 0xff, 0xff,
  0x04, 0x00, 0x00, 0x00, 0x10, 0x00, 0x00, 0x00, 0xff, 0xff, 0xff, 0xff,
  0x31, 0x00, 0x00, 0x00, 0x28, 0x00, 0x00, 0x00, 0x01, 0x00, 0x00, 0x00,
  0x48, 0xbd, 0xff, 0xff, 0x4c, 0xbd, 0xff, 0xff, 0xe6, 0xbf, 0xff, 0xff,
  0x04, 0x00, 0x00, 0x00, 0x20, 0x00, 0x00, 0x00, 0x24, 0x00, 0x00, 0x00,
  0x3d, 0x00, 0x00, 0x00, 0x0f, 0x00, 0x00, 0x00, 0x00, 0x00, 0x00, 0x00,
  0x8a, 0xff, 0xff, 0xff, 0x01, 0x00, 0x00, 0x00, 0x01, 0x00, 0x00, 0x00,
  0x00, 0x00, 0x00, 0x00, 0x12, 0xc0, 0xff, 0xff, 0x04, 0x00, 0x00, 0x00,
  0x80, 0x3e, 0x00, 0x00, 0x0e, 0x21, 0x25, 0xd9, 0xdc, 0x00, 0x27, 0x11,
  0xef, 0xe6, 0x03, 0xef, 0x28, 0x08, 0x11, 0xf2, 0x0f, 0xf7, 0xf8, 0xeb,
  0x27, 0x06, 0xf2, 0xdb, 0xd5, 0xed, 0x0d, 0xda, 0xe7, 0x08, 0x07, 0xf8,
  0xfd, 0xfa, 0x12, 0xd3, 0xf4, 0xec, 0xf2, 0x1a, 0xed, 0x1b, 0xdb, 0xb4,
  0x34, 0xee, 0x1e, 0x0f, 0xdc, 0x14, 0xf3, 0xf4, 0x05, 0xdc, 0x0d, 0xcf,
  0x05, 0x18, 0x13, 0xcd, 0x04, 0x02, 0x22, 0x06, 0x15, 0x23, 0x2a, 0x0f,
  0xf2, 0x16, 0xde, 0x15, 0xed, 0xf4, 0x07, 0xd4, 0xed, 0xde, 0x13, 0x07,
  0xf5, 0xe2, 0x11, 0xf7, 0xfa, 0xe7, 0x14, 0x08, 0x25, 0xff, 0xf1, 0xc8,
  0x27, 0xd9, 0xd7, 0xd9, 0xf4, 0xfd, 0xda, 0xb3, 0xd7, 0xf9, 0x19, 0xda,
  0x17, 0x08, 0x17, 0xc2, 0x0c, 0x00, 0x27, 0xf5, 0x38, 0xf9, 0xec, 0xe4,
  0x26, 0xc9, 0xea, 0x24, 0x1c, 0xd9, 0x08, 0xf5, 0x25, 0x2f, 0xe2, 0x19,
  0x29, 0xd5, 0xee, 0xe1, 0xfe, 0x37, 0x21, 0x0f, 0x24, 0xc3, 0xc8, 0xff,
  0xfe, 0xda, 0x01, 0xff, 0xe3, 0x01, 0xde, 0xfd, 0xe4, 0x1b, 0xec, 0xeb,
  0xc8, 0x23, 0x13, 0xbf, 0xf4, 0x16, 0xf9, 0xe3, 0xf2, 0xf0, 0x14, 0x11,
  0xc8, 0xd1, 0x2c, 0xe2, 0xdf, 0x17, 0x18, 0xd1, 0xed, 0x04, 0x06, 0xf2,
  0x1a, 0xf4, 0xde, 0xfc, 0xdb, 0xf4, 0xdd, 0xe1, 0x1a, 0xc3, 0x21, 0xe9,
  0xe5, 0x3d, 0x1a, 0xde, 0x07, 0xfd, 0x27, 0xf8, 0xd8, 0xdd, 0x19, 0x16,
  0xcc, 0x1c, 0x22, 0xd9, 0xef, 0xc8, 0xf7, 0xe3, 0xfe, 0x1a, 0xd1, 0xfd,
  0x25, 0x3c, 0x07, 0x2f, 0x3b, 0xf2, 0xc7, 0x02, 0xf2, 0x0e, 0x1e, 0xe3,
  0xe6, 0x10, 0xde, 0xc3, 0x37, 0xdb, 0x19, 0x05, 0x20, 0x32, 0xe3, 0xc7,
  0x1e, 0x04, 0xe8, 0x0d, 0xd2, 0xf6, 0xd1, 0x0a, 0xea, 0x34, 0xdf, 0x34,
  0x0c, 0x06, 0x02, 0x1c, 0xf2, 0x09, 0xe7, 0x06, 0xda, 0x22, 0x12, 0x07,
  0xfe, 0x2d, 0xf4, 0x10, 0xf3, 0x06, 0x32, 0xe1, 0xe8, 0x0f, 0x22, 0xe3,
  0xfb, 0x1e, 0x2a, 0xd2, 0xe6, 0x18, 0x2b, 0x05, 0xdd, 0x14, 0x1e, 0x08,
  0xe4, 0xdf, 0x15, 0x3d, 0xf8, 0xcd, 0x0b, 0x0d, 0xe0, 0xff, 0xf8, 0xf6,
  0x08, 0xf5, 0xe6, 0xf4, 0x05, 0xf6, 0x28, 0x13, 0xf7, 0x2f, 0xfe, 0xf4,
  0xd5, 0x09, 0x1d, 0x37, 0x25, 0x03, 0xe8, 0xfb, 0xfe, 0x0b, 0xf7, 0x10,
  0x27, 0x25, 0x11, 0xf8, 0x18, 0xea, 0x16, 0xed, 0x29, 0xf0, 0x04, 0xf9,
  0x0f, 0x0e, 0x18, 0x33, 0x16, 0x04, 0x0c, 0xe7, 0xe6, 0xca, 0xfa, 0xed,
  0xfb, 0xe2, 0xff, 0x31, 0x11, 0x29, 0xfd, 0xda, 0xe9, 0xf0, 0x0b, 0x01,
  0xe2, 0x09, 0xca, 0x3a, 0xca, 0x0d, 0x29, 0x21, 0x0d, 0xd9, 0xf9, 0x06,
  0x07, 0x08, 0x08, 0xf6, 0xee, 0xce, 0xe6, 0x16, 0xf7, 0x18, 0x3c, 0x1e,
  0xf1, 0xdd, 0x00, 0xf1, 0x0d, 0xfd, 0x19, 0xf6, 0x3c, 0xe5, 0xe9, 0xf6,
  0x36, 0x18, 0xe3, 0xef, 0xee, 0x12, 0xe2, 0x22, 0xf2, 0xd3, 0x1c, 0x04,
  0x19, 0xfa, 0x0a, 0x23, 0xd2, 0xbf, 0xec, 0x1f, 0xf1, 0x15, 0x17, 0xdf,
  0xdc, 0x1d, 0xf0, 0xfd, 0xff, 0x0d, 0xdb, 0x1f, 0xf4, 0x18, 0x11, 0x13,
  0x05, 0xfa, 0x3e, 0xcf, 0x0f, 0xfb, 0x0c, 0x04, 0xff, 0xf8, 0x13, 0xf7,
  0x28, 0x22, 0x02, 0x20, 0x30, 0x08, 0x0a, 0xfd, 0x05, 0xea, 0x21, 0x0f,
  0xef, 0xec, 0xf5, 0x19, 0x19, 0xff, 0xcc, 0x30, 0xc7, 0xf0, 0xdf, 0xff,
  0xfb, 0x2a, 0xf9, 0xdf, 0xfb, 0x34, 0x13, 0x04, 0x20, 0xe4, 0x19, 0x06,
  0x01, 0xfd, 0x0a, 0x09, 0xea, 0xe9, 0xeb, 0xdb, 0x17, 0xf3, 0xea, 0xe8,
  0xfc, 0x14, 0xbc, 0xf4, 0xe1, 0xfb, 0xf5, 0xd6, 0xed, 0xef, 0xed, 0xfb,
  0x14, 0xeb, 0x08, 0xfe, 0xd2, 0xee, 0x1d, 0xfd, 0x1a, 0x0a, 0x11, 0xd7,
  0x3b, 0xf6, 0xfd, 0x29, 0xf9, 0x17, 0xdf, 0xfb, 0xdd, 0x04, 0xd9, 0x2c,
  0xd4, 0x06, 0xf2, 0x10, 0x10, 0x04, 0xf3, 0x01, 0x23, 0xdf, 0xe6, 0xd1,
  0xf0, 0x36, 0xda, 0xfa, 0x0d, 0xfd, 0xe1, 0x36, 0x0d, 0xff, 0xeb, 0x19,
  0x0e, 0x1e, 0xdc, 0xeb, 0xf1, 0x22, 0x07, 0xec, 0xdf, 0xf4, 0x02, 0x04,
  0xc1, 0xf4, 0xf1, 0xec, 0xdf, 0xfd, 0x03, 0x36, 0xe1, 0x20, 0xea, 0x25,
  0x04, 0xeb, 0xf0, 0xf3, 0xea, 0xd3, 0x14, 0xf1, 0xcc, 0x1d, 0xf6, 0x11,
  0x38, 0xf9, 0xfb, 0x0b, 0xc4, 0xd6, 0x2e, 0x07, 0xfc, 0xd2, 0xe7, 0xdd,
  0x19, 0x0b, 0x1f, 0xfe, 0x0c, 0x0b, 0x2c, 0xf9, 0x1a, 0xd4, 0xf2, 0xcc,
  0x0f, 0x1f, 0xea, 0x0d, 0xdc, 0x28, 0xe7, 0x1b, 0xf1, 0xf6, 0x12, 0x15,
  0xc8, 0x1c, 0x3a, 0x16, 0x0f, 0xe2, 0xf8, 0xf9, 0xf5, 0x36, 0x1d, 0x0d,
  0xef, 0xea, 0xe6, 0xe9, 0x0d, 0x16, 0x16, 0xda, 0xd7, 0xf4, 0x3c, 0xf9,
  0xff, 0xff, 0x0f, 0x09, 0xf8, 0xf2, 0x05, 0x05, 0xfc, 0x13, 0xdd, 0xf7,
  0xf6, 0xec, 0xc8, 0xfc, 0xf3, 0x12, 0x05, 0xc8, 0xe5, 0xef, 0xf3, 0x0b,
  0xeb, 0xce, 0x1c, 0x08, 0xd3, 0x44, 0xe6, 0x10, 0xfb, 0x00, 0x13, 0xe8,
  0x18, 0x15, 0x0a, 0xee, 0x13, 0x13, 0xec, 0xf8, 0xdc, 0x14, 0x06, 0xfb,
  0x20, 0x29, 0xf3, 0x28, 0xd8, 0x2f, 0x14, 0xfd, 0xc8, 0x3e, 0x22, 0x15,
  0xcc, 0x1c, 0x0c, 0xfe, 0x09, 0xf0, 0xe1, 0x00, 0xe7, 0xcc, 0xdb, 0x03,
  0xfe, 0x26, 0xe9, 0x02, 0xf5, 0x08, 0xd7, 0xf8, 0xf2, 0x2f, 0xec, 0xe5,
  0xf0, 0x16, 0xf9, 0xe3, 0xf9, 0x2e, 0xc7, 0xfc, 0x18, 0x2a, 0x3a, 0x03,
  0xdd, 0xe8, 0xfe, 0x11, 0xf0, 0xec, 0xed, 0x1f, 0xf3, 0xe7, 0xe4, 0x41,
  0x3c, 0xe7, 0xf7, 0x05, 0x09, 0x20, 0x14, 0xea, 0xf8, 0x3a, 0x08, 0x2a,
  0x27, 0x19, 0xef, 0xe4, 0xe1, 0xf2, 0x30, 0xee, 0x01, 0xf5, 0xfe, 0x14,
  0xe5, 0x1b, 0xd8, 0x1c, 0xec, 0x24, 0xd2, 0x15, 0x10, 0x00, 0xcb, 0xf5,
  0xef, 0xe5, 0xe8, 0xeb, 0x08, 0x0a, 0xde, 0xe4, 0x03, 0xef, 0xf5, 0xcc,
  0x3a, 0x0c, 0x14, 0x22, 0x24, 0xe7, 0x15, 0x25, 0xc1, 0xe0, 0xec, 0xfd,
  0xd3, 0xe7, 0x02, 0xf4, 0xea, 0x06, 0x1c, 0x1e, 0xc4, 0xfd, 0x28, 0xec,
  0xe4, 0x0c, 0xf6, 0xf2, 0xe4, 0x00, 0x0f, 0x0d, 0x0e, 0xe0, 0x2e, 0x1d,
  0x18, 0x1a, 0x30, 0xd7, 0x12, 0xf7, 0xcd, 0xde, 0x09, 0xd9, 0xf9, 0xd9,
  0xff, 0x01, 0x07, 0x00, 0xd0, 0x28, 0x20, 0xdf, 0x1a, 0xe8, 0xf9, 0xeb,
  0x25, 0xe4, 0x12, 0x12, 0xf0, 0x28, 0xe3, 0x3b, 0xe8, 0x21, 0x09, 0x1f,
  0x0a, 0x04, 0x17, 0x0e, 0xda, 0x0e, 0x10, 0xeb, 0xc5, 0x01, 0x09, 0x36,
  0xf7, 0x27, 0xf4, 0x37, 0x00, 0xe7, 0x2c, 0x02, 0x05, 0xe2, 0xe6, 0x3b,
  0xf4, 0x0a, 0xf6, 0x3b, 0x09, 0xfd, 0xf4, 0xcc, 0xf8, 0xd9, 0x0e, 0x05,
  0xe5, 0x1b, 0x33, 0x01, 0xe2, 0xe1, 0xfc, 0x3b, 0x36, 0x13, 0xd1, 0x02,
  0xde, 0xea, 0xed, 0x3f, 0xc6, 0x03, 0x1d, 0x09, 0x0d, 0x05, 0x02, 0x1c,
  0xe9, 0x02, 0x36, 0x05, 0xe7, 0x24, 0xeb, 0xf9, 0xe3, 0x0c, 0xee, 0xf8,
  0xe4, 0x14, 0xe6, 0x0a, 0xd3, 0x01, 0x10, 0x15, 0xef, 0x22, 0x0f, 0xdf,
  0xf1, 0x1b, 0x36, 0x15, 0x03, 0xea, 0x1d, 0x07, 0x0e, 0xee, 0x1e, 0xd3,
  0x0a, 0x11, 0x17, 0xf6, 0x09, 0x04, 0xe1, 0x29, 0x12, 0x19, 0x1b, 0x08,
  0xef, 0xf4, 0x2b, 0x04, 0xdb, 0xf6, 0xe8, 0xd4, 0xe1, 0xf0, 0x10, 0xd1,
  0xdd, 0x31, 0xfe, 0x15, 0xf5, 0xd7, 0xdd, 0xdc, 0xe8, 0xf2, 0x12, 0x22,
  0xdf, 0xbc, 0x04, 0xed, 0xce, 0x3b, 0xfa, 0x13, 0x18, 0x22, 0xd6, 0x2b,
  0xef, 0x15, 0x2c, 0xdd, 0x20, 0x05, 0xf9, 0xf1, 0x36, 0xfd, 0xf0, 0x01,
  0x0b, 0x1b, 0x27, 0x0f, 0x02, 0xea, 0x48, 0x15, 0xe4, 0xca, 0xdb, 0xe4,
  0x2b, 0xf9, 0x3c, 0x1b, 0xba, 0x0b, 0x0f, 0x29, 0xeb, 0x11, 0xee, 0xe9,
  0xf4, 0xf8, 0xdd, 0x0b, 0x09, 0x38, 0x03, 0x01, 0x2d, 0xe4, 0xdc, 0xd6,
  0x00, 0x04, 0x13, 0x15, 0xeb, 0x1d, 0xd7, 0xfe, 0xf6, 0x1d, 0x29, 0x0b,
  0xf8, 0x03, 0x02, 0xea, 0xda, 0x22, 0x0b, 0x2a, 0xfc, 0xdf, 0xf7, 0x02,
  0xf1, 0x19, 0xf2, 0x0e, 0xda, 0x2e, 0xd7, 0x0e, 0x06, 0x0f, 0x15, 0x46,
  0xf3, 0xec, 0xfa, 0x11, 0x00, 0xfc, 0xd4, 0x0d, 0xd7, 0xff, 0x09, 0xe8,
  0x0f, 0x11, 0xe7, 0xf6, 0xec, 0xf2, 0xef, 0x37, 0x14, 0x19, 0x17, 0x13,
  0xf8, 0xeb, 0x38, 0x2d, 0xcd, 0x3a, 0xff, 0x05, 0x0e, 0xc2, 0x18, 0x0b,
  0x30, 0x34, 0xfb, 0x3c, 0x1a, 0x2f, 0xfd, 0xf9, 0xe6, 0x21, 0xf4, 0xe6,
  0xed, 0xec, 0xfb, 0x05, 0x03, 0x0d, 0x27, 0x15, 0x07, 0xca, 0x40, 0xe2,
  0xe4, 0xdd, 0x35, 0xf8, 0xcc, 0xf5, 0xe6, 0x18, 0xfa, 0xff, 0xe3, 0xef,
  0xf1, 0xf0, 0x02, 0xd2, 0x26, 0x3c, 0xdc, 0xed, 0x1f, 0xf6, 0xe0, 0x07,
  0xf2, 0x03, 0xf9, 0x1c, 0xf1, 0x15, 0xf3, 0xf6, 0x19, 0xf7, 0x2c, 0x12,
  0xe0, 0x0e, 0x16, 0x0d, 0xfd, 0x09, 0xda, 0x23, 0x22, 0x0e, 0x11, 0x07,
  0xe0, 0x0b, 0xfe, 0x08, 0xe6, 0xfd, 0xf0, 0x09, 0xd9, 0x1b, 0x4e, 0x0e,
  0xe1, 0x1e, 0x1a, 0xd4, 0x16, 0xf0, 0x1e, 0x10, 0x05, 0x07, 0xf7, 0xf1,
  0xd2, 0x07, 0xef, 0xf9, 0xec, 0x1e, 0x0e, 0xf2, 0xf2, 0x26, 0x2c, 0x15,
  0x0b, 0xf8, 0x19, 0x0e, 0xe2, 0x1b, 0x41, 0x25, 0x21, 0x1a, 0x06, 0xe0,
  0x01, 0x06, 0x16, 0x0b, 0x10, 0x1d, 0x35, 0xfb, 0xe1, 0xfc, 0x3c, 0x1f,
  0xbf, 0x19, 0xfb, 0xff, 0x1d, 0x3f, 0xe5, 0xf7, 0xef, 0xe6, 0x28, 0x12,
  0x11, 0x13, 0xf0, 0x17, 0x01, 0xff, 0x20, 0x1f, 0xe6, 0x15, 0x18, 0x18,
  0x1f, 0xda, 0x18, 0x11, 0xf4, 0x26, 0x28, 0x3b, 0xf2, 0x10, 0x1c, 0x00,
  0xe8, 0xe8, 0x0f, 0xee, 0x09, 0x2c, 0x0e, 0x03, 0x29, 0xfc, 0xfe, 0xf7,
  0xf9, 0xfe, 0x25, 0xef, 0x06, 0x0b, 0x02, 0xd5, 0xe4, 0xe1, 0x14, 0x1f,
  0xea, 0x01, 0xda, 0x11, 0x0b, 0x2c, 0x32, 0x0e, 0xd8, 0xf8, 0x1a, 0xef,
  0x2c, 0x1f, 0x05, 0x33, 0x08, 0xd9, 0x03, 0x18, 0xef, 0x24, 0xf3, 0x0d,
  0xf1, 0x04, 0x46, 0x07, 0xd8, 0xfa, 0x08, 0xf9, 0xf3, 0xff, 0x19, 0x0c,
  0xf5, 0xf9, 0x2a, 0xf0, 0xf1, 0x26, 0x04, 0x0c, 0x15, 0x0b, 0x19, 0x28,
  0xfb, 0xea, 0x2d, 0x24, 0xf9, 0x08, 0xe4, 0x31, 0x2b, 0xdc, 0x0f, 0xf0,
  0x2d, 0x35, 0x0b, 0x0d, 0xd8, 0xf3, 0x12, 0xec, 0xfe, 0x23, 0x19, 0xce,
  0x02, 0x19, 0x1c, 0xe6, 0xea, 0x1a, 0xeb, 0xff, 0x02, 0x00, 0x0b, 0xdb,
  0xd0, 0xf2, 0x26, 0x3f, 0xf1, 0x3a, 0x12, 0x13, 0xde, 0xfc, 0xd8, 0xfe,
  0xfb, 0x45, 0xe3, 0x1d, 0xe0, 0x16, 0xcf, 0x0a, 0xd5, 0xf8, 0xee, 0x16,
  0xe4, 0x09, 0x00, 0x02, 0xee, 0x3c, 0xea, 0xe4, 0xe8, 0x02, 0xf6, 0x24,
  0x1c, 0x1a, 0x25, 0x14, 0xff, 0xf1, 0xce, 0xff, 0x3b, 0x2c, 0xfd, 0x18,
  0xfd, 0x1b, 0xf0, 0x33, 0xe9, 0x0e, 0xec, 0xff, 0x18, 0x18, 0x08, 0xe8,
  0xe5, 0x29, 0x15, 0xf7, 0x15, 0xcc, 0xfd, 0xe6, 0x11, 0x14, 0xdb, 0x09,
  0xe3, 0xdb, 0xed, 0x31, 0xf1, 0xf5, 0xf2, 0x0e, 0x1f, 0x23, 0x0d, 0x0f,
  0xf7, 0xe9, 0x14, 0xea, 0x15, 0x0e, 0xf1, 0xf7, 0xd2, 0xff, 0x0e, 0x0a,
  0xe8, 0x10, 0x0c, 0xe2, 0xeb, 0x05, 0x15, 0x0b, 0xd8, 0x27, 0xd7, 0xf2,
  0x0c, 0x13, 0x05, 0x17, 0x1c, 0xd4, 0xef, 0xf8, 0xf0, 0x29, 0xcd, 0x0d,
  0xfe, 0xe8, 0xf0, 0xfb, 0xe2, 0x10, 0x04, 0x01, 0xef, 0xec, 0x1d, 0x06,
  0xf9, 0x07, 0xd6, 0xfe, 0x01, 0x13, 0x1e, 0x2d, 0xe4, 0xeb, 0xda, 0x14,
  0xeb, 0x05, 0x1b, 0xd6, 0xd6, 0x16, 0x1e, 0x09, 0x12, 0xf5, 0x1d, 0x30,
  0xfe, 0xf9, 0x0f, 0xf5, 0xbc, 0xda, 0x13, 0x0c, 0xe8, 0x1a, 0x13, 0x2b,
  0xd1, 0xdd, 0xc7, 0x20, 0x01, 0x0b, 0xf8, 0x22, 0xdd, 0xf6, 0xf3, 0xf4,
  0x0f, 0x13, 0x23, 0x05, 0xee, 0x01, 0x19, 0xdb, 0x07, 0x42, 0xfa, 0xea,
  0x08, 0xe3, 0xff, 0xf5, 0xe2, 0x0e, 0x18, 0xf6, 0xeb, 0x1d, 0xf2, 0xd3,
  0xee, 0x4b, 0xf6, 0x27, 0xec, 0xfd, 0x0d, 0x21, 0x02, 0x36, 0xe9, 0x16,
  0x30, 0x00, 0x0c, 0xeb, 0x02, 0xf2, 0x25, 0x11, 0x1f, 0x0b, 0x08, 0x17,
  0x15, 0x28, 0x1f, 0xf5, 0xf5, 0x0f, 0xf4, 0xdf, 0x03, 0x0a, 0xec, 0xc1,
  0x05, 0x11, 0xf2, 0x39, 0xe9, 0x02, 0xfa, 0xda, 0x3b, 0xf8, 0xfc, 0x06,
  0xf6, 0xf6, 0x0e, 0xd7, 0x03, 0x1d, 0xf9, 0xff, 0xde, 0x0b, 0x21, 0x0c,
  0xd2, 0x32, 0xf8, 0x11, 0x37, 0x35, 0xf7, 0xfd, 0x01, 0x1b, 0x03, 0xef,
  0x18, 0xf8, 0xee, 0xfd, 0xf1, 0x14, 0x0a, 0x11, 0xcd, 0xd6, 0x07, 0x06,
  0x30, 0xed, 0x00, 0xeb, 0x19, 0x0d, 0x3b, 0xef, 0x09, 0x07, 0x09, 0xeb,
  0xd5, 0x0b, 0xf6, 0xe9, 0xf6, 0x09, 0x14, 0xcc, 0xf3, 0xf9, 0x35, 0xf4,
  0xdd, 0x13, 0xf0, 0xe6, 0x20, 0xff, 0x0e, 0xd8, 0xf6, 0x1c, 0xe6, 0x35,
  0xdc, 0x00, 0x2e, 0xf1, 0xc8, 0x26, 0xe8, 0x01, 0x02, 0xfa, 0xfa, 0x25,
  0xc2, 0xc5, 0xed, 0x1f, 0xdc, 0x3d, 0x06, 0x3f, 0xf3, 0xcf, 0x03, 0xee,
  0xec, 0x1f, 0x0c, 0x13, 0x34, 0xdb, 0x0b, 0xe4, 0xfe, 0x27, 0x22, 0x2c,
  0xea, 0xf0, 0x1a, 0x10, 0x14, 0x2e, 0x0b, 0x0f, 0xf5, 0x04, 0x21, 0xf3,
  0x1c, 0x4e, 0x28, 0xee, 0x24, 0xf4, 0x01, 0x03, 0x2a, 0x02, 0x21, 0x20,
  0x00, 0x22, 0xde, 0x24, 0xee, 0xe9, 0xd7, 0x0c, 0x04, 0xf1, 0xe8, 0xed,
  0xd3, 0xf9, 0x1e, 0xf0, 0x33, 0x1d, 0xfa, 0x09, 0xcd, 0x2c, 0xf2, 0x01,
  0xea, 0x2a, 0xff, 0xd2, 0xfd, 0x0e, 0x16, 0xf7, 0xed, 0xc4, 0xe5, 0xea,
  0x1e, 0x06, 0x35, 0x12, 0x06, 0x0a, 0xe1, 0xff, 0xf4, 0x07, 0x32, 0x02,
  0x26, 0x0a, 0xeb, 0xfd, 0xe8, 0x0f, 0xfe, 0xfd, 0xf8, 0x21, 0x17, 0x1c,
  0xef, 0x12, 0x30, 0xf2, 0x25, 0x2c, 0xc8, 0x0d, 0xce, 0x13, 0xf9, 0xf8,
  0x16, 0x3d, 0xeb, 0x21, 0x03, 0xff, 0xe7, 0xd7, 0xef, 0xed, 0xf3, 0xf5,
  0x1c, 0x12, 0x31, 0xf1, 0xcd, 0x2d, 0xe7, 0x1a, 0x03, 0x1f, 0x27, 0xe9,
  0x09, 0xf5, 0x14, 0x21, 0x09, 0xeb, 0x05, 0xdd, 0xe7, 0x0e, 0x1f, 0x03,
  0x14, 0x0e, 0xff, 0xf2, 0xf1, 0x11, 0xce, 0x0f, 0x0b, 0xfb, 0x0b, 0x1d,
  0xeb, 0xe0, 0xd6, 0x05, 0xf2, 0x2f, 0x0f, 0xd2, 0x1e, 0xe8, 0x07, 0x08,
  0xf8, 0x27, 0x0b, 0x10, 0x0e, 0x03, 0x2d, 0x18, 0x13, 0x3f, 0x2b, 0xfe,
  0x0e, 0x01, 0xd3, 0xd7, 0xeb, 0x09, 0xf9, 0x40, 0xea, 0xc2, 0xf5, 0x34,
  0x2e, 0xff, 0x0d, 0x1d, 0x0d, 0xf9, 0x17, 0x01, 0xce, 0x14, 0xf6, 0xfc,
  0x0c, 0x01, 0xd0, 0x06, 0x22, 0xef, 0x0a, 0xf9, 0x0c, 0xf9, 0xfa, 0xe2,
  0xef, 0xfa, 0x12, 0xfc, 0x3b, 0x32, 0xec, 0xfa, 0xee, 0xed, 0xee, 0xf9,
  0xdd, 0xfb, 0x1e, 0x09, 0x13, 0x0a, 0xe2, 0x06, 0xd1, 0x12, 0x02, 0xdb,
  0x0e, 0x12, 0x1f, 0x0c, 0xcc, 0xef, 0x08, 0xf0, 0x19, 0x13, 0x16, 0xfc,
  0x0f, 0x16, 0x03, 0x04, 0x3a, 0x17, 0x0f, 0xfe, 0xfd, 0x09, 0xe0, 0x26,
  0x1e, 0xe9, 0x04, 0xfc, 0xf7, 0x30, 0x0a, 0xe1, 0xd9, 0xd9, 0x12, 0xf3,
  0x2c, 0xf5, 0x13, 0x02, 0x25, 0xee, 0x1c, 0xdd, 0x1c, 0xcf, 0xed, 0x08,
  0x09, 0x08, 0xfd, 0xe1, 0xfa, 0xe5, 0x17, 0xd1, 0x2a, 0xff, 0xf9, 0xd9,
  0xe2, 0x19, 0xf7, 0x1d, 0x06, 0xfd, 0xc9, 0xe5, 0xe4, 0xf6, 0x2e, 0x36,
  0x17, 0xee, 0x13, 0xf7, 0x0e, 0xdd, 0x0f, 0xff, 0x30, 0x41, 0xe1, 0xe8,
  0xfc, 0xf9, 0xf6, 0x17, 0x0c, 0x49, 0x46, 0x11, 0x2a, 0x25, 0xd4, 0xe9,
  0xe4, 0x22, 0x3c, 0x19, 0xf3, 0x16, 0x06, 0x1d, 0x06, 0x28, 0xf1, 0x33,
  0xfe, 0xdc, 0x0a, 0x0b, 0x1c, 0x23, 0x26, 0x21, 0x03, 0x04, 0x00, 0x12,
  0x32, 0xec, 0xd8, 0xfe, 0xf2, 0xef, 0x03, 0xd7, 0xe3, 0xfb, 0xf4, 0xf5,
  0xe1, 0x03, 0xc7, 0xfe, 0xea, 0x09, 0x16, 0xef, 0x1d, 0x22, 0xc4, 0x18,
  0xed, 0x30, 0xe5, 0xdc, 0xed, 0x1b, 0xd6, 0xd8, 0x01, 0x16, 0xe9, 0xf7,
  0xd3, 0x25, 0x3b, 0xf0, 0x15, 0xfb, 0xf1, 0x34, 0xce, 0x2f, 0x03, 0x0e,
  0xca, 0x25, 0xef, 0xfb, 0x02, 0x1f, 0xf5, 0x1b, 0x3b, 0xf9, 0x14, 0x18,
  0x16, 0x38, 0x07, 0x01, 0xe6, 0xf7, 0xef, 0xfd, 0x14, 0x12, 0x04, 0xda,
  0x10, 0xee, 0xde, 0xf5, 0x41, 0xd9, 0xfa, 0xf2, 0x12, 0xf7, 0x1b, 0xe8,
  0xdd, 0xd7, 0x32, 0x23, 0x1a, 0xf6, 0x11, 0x10, 0x0b, 0xf1, 0xce, 0xf7,
  0xf9, 0x02, 0x21, 0xfd, 0x2f, 0xf1, 0x20, 0x06, 0x06, 0xcb, 0xf4, 0xf7,
  0xd1, 0x3d, 0xfd, 0xdf, 0xfd, 0x05, 0xf2, 0xd4, 0xeb, 0x0e, 0x18, 0x1f,
  0x13, 0x45, 0x2f, 0x23, 0xfa, 0x14, 0xe6, 0x0e, 0x39, 0x11, 0xf7, 0x0c,
  0x09, 0x14, 0x26, 0x14, 0xfa, 0x1c, 0x23, 0x12, 0x0f, 0xe8, 0x1e, 0xdd,
  0x17, 0x0b, 0x02, 0x0f, 0x31, 0xfa, 0xe9, 0x16, 0xf5, 0x0d, 0x26, 0x06,
  0x39, 0xed, 0x2e, 0x09, 0xf5, 0x0b, 0x22, 0xe6, 0x24, 0xfd, 0x20, 0xc7,
  0xf7, 0xff, 0x0f, 0x07, 0x17, 0xc8, 0x03, 0xf0, 0xdd, 0xe6, 0xf7, 0xd5,
  0x12, 0xff, 0x2a, 0x00, 0xeb, 0x19, 0xfb, 0xfb, 0x2c, 0xe7, 0xdd, 0xd8,
  0x0c, 0x0f, 0x25, 0xf4, 0xcf, 0x02, 0xe0, 0x02, 0xc3, 0xe7, 0x15, 0xe6,
  0x0c, 0xdc, 0xc3, 0xe6, 0x01, 0xee, 0x42, 0xf6, 0xd2, 0x13, 0xe6, 0x14,
  0xe7, 0xea, 0x0c, 0xfb, 0x0d, 0x08, 0x0d, 0x12, 0x22, 0xfe, 0xed, 0xd6,
  0x15, 0xeb, 0xee, 0x22, 0xe0, 0xf7, 0xf7, 0xf7, 0x02, 0x0d, 0xe1, 0xfe,
  0xe8, 0x04, 0xeb, 0xdf, 0xdb, 0x1a, 0x0e, 0xe6, 0x0a, 0xff, 0x0e, 0xfc,
  0xd1, 0xf8, 0x09, 0xe6, 0x22, 0xe5, 0xe8, 0xd8, 0xbc, 0x42, 0x24, 0x29,
  0x21, 0x0f, 0x10, 0x19, 0xe2, 0xe3, 0x0d, 0xf0, 0xef, 0x04, 0xd5, 0x31,
  0xcf, 0x0f, 0xee, 0x02, 0xd2, 0x59, 0x06, 0xf1, 0xff, 0xe9, 0x07, 0x16,
  0x23, 0x23, 0x3a, 0x12, 0x24, 0xf4, 0x40, 0x03, 0xd0, 0x45, 0xf6, 0x36,
  0x0f, 0x04, 0x06, 0xf5, 0x0f, 0xfc, 0x0f, 0xf8, 0xf8, 0x03, 0xf6, 0xfb,
  0xc0, 0x39, 0x2e, 0x2f, 0xf1, 0xe0, 0xed, 0x16, 0x13, 0xf3, 0x11, 0x1e,
  0xec, 0x04, 0x0d, 0x04, 0x2f, 0x1e, 0x13, 0xdb, 0x27, 0xe0, 0x16, 0xcc,
  0xfa, 0x03, 0x10, 0x09, 0x13, 0xf0, 0x10, 0xe4, 0x0d, 0x44, 0x36, 0xe6,
  0xed, 0x0b, 0x2f, 0x10, 0x11, 0xfe, 0x30, 0x14, 0xe1, 0xf1, 0xe0, 0x09,
  0xdc, 0x2c, 0xe0, 0x17, 0x0b, 0xf3, 0x2b, 0x1b, 0x31, 0x15, 0x04, 0xf0,
  0xe2, 0x17, 0xf2, 0x16, 0xdf, 0xf8, 0xdf, 0x25, 0xeb, 0x27, 0x0b, 0xf2,
  0x03, 0xea, 0xea, 0xc8, 0xec, 0xf9, 0x12, 0x06, 0x14, 0x19, 0xd2, 0xfb,
  0x08, 0x33, 0xec, 0x2d, 0x02, 0x14, 0xec, 0x0f, 0xe6, 0xf5, 0xc8, 0x25,
  0x25, 0x04, 0xf1, 0xf6, 0xef, 0xdb, 0xfb, 0xe3, 0xe6, 0xd4, 0xf5, 0xf4,
  0xda, 0x25, 0x03, 0xf6, 0x36, 0xe6, 0xfe, 0xf0, 0xc6, 0x27, 0xf6, 0xca,
  0xdb, 0xe9, 0xee, 0x1a, 0xef, 0xf4, 0xcb, 0xc4, 0x18, 0x11, 0x0a, 0xde,
  0x16, 0xbc, 0x1b, 0x0a, 0xf9, 0x60, 0x19, 0x1c, 0x1b, 0xe2, 0xf2, 0x21,
  0xc6, 0x28, 0x4c, 0x20, 0xf4, 0x15, 0x0a, 0x1f, 0x02, 0x41, 0xea, 0x33,
  0x0a, 0x0b, 0x07, 0x12, 0xc5, 0x41, 0xeb, 0x28, 0x2c, 0xef, 0x11, 0x2d,
  0xec, 0x39, 0x1f, 0xf8, 0xf8, 0xca, 0xd7, 0xea, 0x2d, 0xf6, 0x0d, 0x14,
  0xf3, 0xfa, 0xec, 0x27, 0xf2, 0xff, 0x01, 0xb4, 0xeb, 0xd8, 0x1a, 0x21,
  0xc9, 0x34, 0x30, 0x12, 0xe5, 0x1a, 0xef, 0xe2, 0xfc, 0x20, 0xfb, 0xcd,
  0xe1, 0x19, 0xf2, 0x1c, 0xed, 0x13, 0x1c, 0x0b, 0xe0, 0x15, 0xca, 0x02,
  0xf8, 0x09, 0x40, 0x13, 0x0d, 0x20, 0xf7, 0xeb, 0x17, 0x23, 0xfe, 0xf3,
  0x1f, 0x02, 0x11, 0x01, 0xec, 0xe5, 0x36, 0xf2, 0xf2, 0xff, 0xfe, 0x09,
  0x02, 0x03, 0xe3, 0x0b, 0x01, 0x1f, 0x22, 0x24, 0xda, 0xf0, 0xd6, 0xe9,
  0xd9, 0xd7, 0xeb, 0xc7, 0xe7, 0xca, 0xf6, 0xec, 0xb6, 0x20, 0x0b, 0xf1,
  0xc8, 0xf8, 0xcf, 0xe2, 0xea, 0x1c, 0x0a, 0xd0, 0x1b, 0x06, 0xbf, 0xe1,
  0xfb, 0x04, 0x03, 0xf6, 0xf8, 0xe7, 0xff, 0x11, 0xce, 0x2a, 0x3a, 0xcf,
  0xf3, 0x47, 0xfd, 0x0d, 0x20, 0xc2, 0xf0, 0x11, 0x01, 0x7f, 0x3e, 0x05,
  0xda, 0x32, 0x04, 0xe4, 0x13, 0x4b, 0x57, 0x3a, 0xc9, 0xe9, 0xef, 0x0e,
  0x10, 0x27, 0x23, 0x1c, 0x0d, 0x08, 0xff, 0x1f, 0xd5, 0x03, 0x19, 0x26,
  0x2b, 0x1d, 0x0f, 0x05, 0x22, 0x1d, 0x0c, 0x1e, 0x0b, 0x3c, 0x23, 0x23,
  0x24, 0x39, 0x0c, 0xf7, 0xe9, 0xdd, 0x0c, 0xed, 0xda, 0x07, 0xdc, 0xfd,
  0x29, 0xe5, 0x1f, 0x1c, 0xf6, 0x26, 0x1a, 0xf0, 0x01, 0xca, 0x23, 0x0e,
  0xd8, 0xee, 0x2b, 0x18, 0xf8, 0xf8, 0xd5, 0x19, 0xc4, 0x27, 0x2b, 0x1e,
  0xf0, 0x0e, 0x0f, 0xfb, 0x27, 0x25, 0xf3, 0x24, 0xf3, 0x18, 0xe0, 0x21,
  0x03, 0xe6, 0x22, 0x26, 0x01, 0xf2, 0x24, 0xe4, 0xf2, 0x0b, 0xf7, 0xd1,
  0x38, 0x07, 0xd6, 0xe8, 0xd7, 0xfa, 0x16, 0x1e, 0xfa, 0x0f, 0xfb, 0xfc,
  0xdc, 0xf6, 0xd3, 0xfb, 0xf6, 0x1b, 0xf4, 0x22, 0x19, 0xca, 0x06, 0xd5,
  0xd7, 0xdf, 0xcd, 0xcf, 0x2f, 0x1c, 0xfa, 0xce, 0xd8, 0x1f, 0x11, 0x07,
  0xe1, 0xb7, 0xfc, 0xda, 0xb5, 0x3c, 0xdf, 0x01, 0x1a, 0xd3, 0xeb, 0x14,
  0xd4, 0xc5, 0xf0, 0xf6, 0xfe, 0x30, 0x50, 0x14, 0xfd, 0xed, 0x07, 0xe6,
  0x11, 0x3f, 0x26, 0x39, 0x4d, 0xed, 0xfd, 0x02, 0xed, 0x56, 0x09, 0x29,
  0x07, 0x05, 0x05, 0x00, 0xe1, 0x70, 0xec, 0x23, 0x2a, 0xf9, 0xf7, 0x31,
  0x04, 0x64, 0x01, 0x1e, 0xdf, 0xd0, 0x27, 0x35, 0xd1, 0x03, 0x10, 0x27,
  0xb5, 0xfe, 0xeb, 0x2c, 0xf3, 0xe9, 0xd5, 0xed, 0x0d, 0x11, 0xd3, 0xfd,
  0x1d, 0x3f, 0xe5, 0xf9, 0x11, 0xf1, 0x19, 0x24, 0x03, 0x02, 0xd7, 0xd5,
  0x17, 0xda, 0x34, 0xd1, 0xd5, 0x23, 0x54, 0xf5, 0xe2, 0xdb, 0x20, 0xd8,
  0x0e, 0x01, 0x25, 0xf8, 0xd7, 0xdd, 0xf9, 0x0f, 0xfe, 0x23, 0xf8, 0x3d,
  0x1b, 0x0b, 0x18, 0xe2, 0xf3, 0x23, 0x30, 0xf6, 0x12, 0xf7, 0xe3, 0xec,
  0xe0, 0xf5, 0x16, 0xcf, 0xec, 0x38, 0xfb, 0xed, 0x27, 0x1c, 0xe6, 0xed,
  0x25, 0x05, 0x24, 0x2f, 0x32, 0x13, 0xf7, 0x01, 0xfc, 0xda, 0x03, 0x1b,
  0xfa, 0xff, 0x15, 0xee, 0xd8, 0xe4, 0x3b, 0x13, 0xf0, 0xf3, 0xf8, 0xb7,
  0x05, 0xeb, 0x0a, 0xe7, 0xf7, 0xdd, 0xd6, 0x12, 0x03, 0xc6, 0x0e, 0xfc,
  0xff, 0x15, 0x12, 0xfc, 0xef, 0xfc, 0xd3, 0xd2, 0x0e, 0x6f, 0x05, 0xfa,
  0x12, 0xc3, 0x39, 0x3d, 0x1c, 0x40, 0x1e, 0x2d, 0x39, 0x04, 0x06, 0x1b,
  0x06, 0x4b, 0x5c, 0x3a, 0xd1, 0x2d, 0xf8, 0x16, 0x0f, 0x26, 0x26, 0x31,
  0x18, 0xda, 0x17, 0xf8, 0x0f, 0x0a, 0x2f, 0x4d, 0x06, 0xfc, 0x12, 0xf5,
  0x2b, 0x0e, 0x19, 0x24, 0xc3, 0xcf, 0xf9, 0xdf, 0x0c, 0x27, 0xe8, 0x3d,
  0xcb, 0x05, 0xc2, 0x35, 0xe3, 0x4e, 0xe8, 0xc9, 0xf0, 0xce, 0xe0, 0xfc,
  0x1b, 0x44, 0x24, 0x23, 0x11, 0xe5, 0x28, 0x33, 0x1f, 0x2f, 0xfd, 0x0f,
  0xc3, 0xeb, 0xf7, 0x11, 0xf0, 0x41, 0x0f, 0x26, 0xf1, 0x13, 0x1a, 0x14,
  0xea, 0xeb, 0x21, 0x32, 0xe0, 0xce, 0xd6, 0x0f, 0xf5, 0xfa, 0x00, 0x30,
  0xe2, 0x02, 0xed, 0xf2, 0xc8, 0x0b, 0xe6, 0xde, 0x2a, 0x26, 0xff, 0xeb,
  0x2e, 0x07, 0xfd, 0x08, 0xee, 0xeb, 0xde, 0x00, 0x05, 0xf8, 0x0b, 0x03,
  0xfa, 0xeb, 0xe5, 0x06, 0x0e, 0x20, 0xf8, 0x16, 0xf7, 0xe0, 0x1d, 0xe7,
  0xce, 0xf3, 0x08, 0x03, 0x0b, 0xd6, 0xfb, 0x38, 0xc3, 0x0e, 0xf3, 0x03,
  0xc9, 0x23, 0xf3, 0x0e, 0xe5, 0xf3, 0xfc, 0xca, 0xbd, 0x07, 0xd7, 0x0b,
  0x2a, 0x55, 0x2d, 0xfc, 0x0b, 0xe7, 0xf4, 0x05, 0x16, 0x5a, 0x0b, 0x5a,
  0x09, 0xf9, 0x06, 0x09, 0xd2, 0x50, 0x3b, 0x30, 0xec, 0x09, 0xf4, 0xf1,
  0x18, 0x28, 0x10, 0x25, 0xc9, 0xef, 0x25, 0xf4, 0xeb, 0xfb, 0x07, 0x3c,
  0x31, 0x09, 0x0e, 0xfd, 0xe3, 0x1b, 0xe9, 0x1c, 0xe3, 0xee, 0xe5, 0x0b,
  0x1a, 0xe6, 0xde, 0x0d, 0xec, 0xf4, 0xfc, 0xfd, 0xfd, 0x19, 0xee, 0xf2,
  0x39, 0xcd, 0x32, 0x2f, 0xe7, 0xfd, 0x06, 0xec, 0x0f, 0xbf, 0xd6, 0x0e,
  0x08, 0x36, 0x1b, 0x10, 0xdf, 0x18, 0xc4, 0xe3, 0x04, 0x5a, 0xf1, 0xfe,
  0xe3, 0x33, 0xdd, 0x10, 0xce, 0x02, 0x07, 0x50, 0xe3, 0xde, 0x2b, 0xf9,
  0xed, 0x04, 0x2b, 0x38, 0x13, 0xfb, 0x0e, 0x2c, 0x17, 0xe6, 0xfd, 0xc8,
  0xda, 0xe1, 0xf2, 0x03, 0xfe, 0xee, 0xf8, 0x12, 0x03, 0x34, 0xe1, 0x26,
  0xd9, 0x12, 0x20, 0x40, 0xa0, 0xed, 0xf1, 0xff, 0xce, 0x1b, 0xfe, 0xfa,
  0x0a, 0x02, 0x02, 0x26, 0xf1, 0xdf, 0xe3, 0xfe, 0xc0, 0x2c, 0xe6, 0xd0,
  0x14, 0xdf, 0xfd, 0xfe, 0xf8, 0x0f, 0xd9, 0xed, 0x1a, 0xf2, 0xf9, 0x15,
  0xc9, 0xe3, 0xcf, 0x09, 0xfa, 0x29, 0x2c, 0x13, 0x08, 0xea, 0x3a, 0xef,
  0xe5, 0x62, 0x37, 0x25, 0x13, 0xe1, 0xe1, 0x1d, 0x05, 0x6f, 0x2b, 0x34,
  0xcb, 0x44, 0x28, 0xfe, 0xe7, 0x33, 0xf0, 0x35, 0x1d, 0x34, 0x05, 0xf4,
  0x2c, 0x31, 0x0d, 0x25, 0x05, 0xd0, 0x1e, 0xdb, 0xf8, 0x26, 0x16, 0x47,
  0x00, 0xeb, 0xda, 0xfd, 0x07, 0x21, 0xf6, 0x2e, 0xee, 0xfe, 0x07, 0xf9,
  0xde, 0xfb, 0xe7, 0x0f, 0x12, 0x1e, 0x1d, 0xf4, 0x1e, 0x0f, 0xfd, 0xf3,
  0xfb, 0x00, 0xc7, 0x0a, 0x26, 0x04, 0x2c, 0x19, 0xee, 0x23, 0x12, 0xfa,
  0xf4, 0x28, 0xf3, 0x41, 0xc2, 0xee, 0x28, 0xfb, 0x1e, 0xfb, 0x2e, 0x5d,
  0xda, 0x1d, 0xe2, 0xfa, 0x02, 0x32, 0xdf, 0x2a, 0xdb, 0x27, 0xdf, 0x0d,
  0xf8, 0xe5, 0x11, 0xe2, 0xda, 0x11, 0x0a, 0xdb, 0xd9, 0x1f, 0xff, 0x0f,
  0x05, 0xdf, 0x27, 0x20, 0x29, 0x07, 0x2c, 0x39, 0xd2, 0xef, 0xf5, 0x35,
  0x18, 0xf9, 0x06, 0x17, 0xbf, 0x1f, 0xf0, 0x1e, 0x1c, 0xec, 0x11, 0x00,
  0x25, 0xf9, 0xdf, 0x10, 0xf8, 0xcb, 0x28, 0xf9, 0xc4, 0xed, 0x34, 0x09,
  0x19, 0xe0, 0xd2, 0x05, 0xd8, 0x04, 0x37, 0x1d, 0xeb, 0x58, 0x21, 0x15,
  0x03, 0xe7, 0xfd, 0x01, 0xe0, 0x5d, 0x44, 0x66, 0x07, 0x2b, 0xfe, 0xf8,
  0x1c, 0x31, 0x4b, 0x55, 0x09, 0xfe, 0x02, 0xfb, 0xf6, 0x24, 0x02, 0x28,
  0x05, 0x2b, 0x3e, 0x08, 0x02, 0x3b, 0x1f, 0x5e, 0x08, 0x26, 0xef, 0xc8,
  0xf4, 0x62, 0x02, 0x2c, 0x02, 0xd4, 0x00, 0x1d, 0x01, 0x21, 0xe2, 0x03,
  0x10, 0x37, 0x12, 0x26, 0xdb, 0x2e, 0xef, 0x0f, 0x29, 0xdc, 0x2b, 0xe6,
  0x16, 0x57, 0x46, 0x31, 0x29, 0xfa, 0xf0, 0x28, 0x1d, 0x1e, 0x0e, 0x34,
  0x00, 0xba, 0x3a, 0x1e, 0x11, 0x0c, 0x2e, 0x4a, 0xc0, 0x04, 0xe0, 0xfe,
  0xd5, 0x57, 0x20, 0x2a, 0xf5, 0xc5, 0xdb, 0xed, 0xd8, 0x14, 0x34, 0x4a,
  0xde, 0xee, 0xfb, 0x0e, 0xe5, 0x17, 0xec, 0x45, 0x09, 0x11, 0x16, 0x23,
  0xef, 0x05, 0x14, 0x12, 0xf6, 0x22, 0x2d, 0x36, 0xdd, 0x0b, 0xf2, 0x02,
  0xb5, 0xcb, 0xe2, 0x1a, 0xe6, 0xf1, 0xe6, 0xe9, 0xe5, 0x0c, 0x23, 0x17,
  0xed, 0xfd, 0xb2, 0x23, 0x05, 0x00, 0x15, 0x09, 0xfe, 0xb7, 0xe2, 0x22,
  0xe8, 0x16, 0x26, 0xef, 0xfe, 0x23, 0x02, 0xfd, 0x00, 0x1d, 0x02, 0xdd,
  0x0b, 0x4f, 0x3a, 0x49, 0x1a, 0x0d, 0x0c, 0xde, 0x09, 0x55, 0x15, 0x1e,
  0x2c, 0x0c, 0x2d, 0x04, 0xe3, 0x4f, 0x11, 0x62, 0xdc, 0xfd, 0x19, 0x37,
  0x1f, 0x05, 0x21, 0x15, 0x09, 0x1b, 0x17, 0x19, 0x1a, 0x07, 0x3d, 0x3c,
  0x42, 0x05, 0xed, 0x06, 0xe6, 0x21, 0x02, 0x62, 0x15, 0xfb, 0x18, 0xfd,
  0xfc, 0x30, 0xc8, 0xed, 0x0a, 0x30, 0xff, 0xd9, 0xdd, 0x2e, 0x11, 0x17,
  0x17, 0xed, 0xd5, 0x1f, 0xc9, 0x07, 0x36, 0x03, 0xdc, 0xf2, 0x04, 0xe0,
  0xf0, 0x35, 0x4a, 0x26, 0xd6, 0xe7, 0x21, 0x3b, 0x1c, 0x2d, 0x1c, 0x43,
  0xce, 0xeb, 0xee, 0x35, 0xfc, 0x39, 0x31, 0x26, 0x0e, 0x06, 0x2f, 0x0b,
  0x20, 0xe7, 0x3f, 0x12, 0xc6, 0x04, 0xfe, 0x14, 0xd7, 0xf3, 0xf5, 0x1b,
  0xf7, 0x15, 0xfc, 0x37, 0x13, 0x1a, 0xfc, 0xe8, 0xcc, 0x0f, 0x22, 0x02,
  0x00, 0x04, 0x08, 0x18, 0xb8, 0xd8, 0x1f, 0x12, 0xd7, 0x1c, 0xf2, 0x1d,
  0xce, 0x04, 0x1a, 0x0f, 0xed, 0x10, 0xe9, 0x2d, 0xf2, 0x1a, 0x1d, 0x0b,
  0xed, 0xe9, 0xd6, 0x00, 0xf4, 0x16, 0xf1, 0xfe, 0x05, 0x06, 0x21, 0xd7,
  0x06, 0x20, 0xce, 0x0c, 0x25, 0x0d, 0x2a, 0xef, 0x05, 0xd4, 0x35, 0xef,
  0xdf, 0x03, 0x2f, 0x58, 0x18, 0xd8, 0xf8, 0xe2, 0xec, 0xfd, 0x2b, 0x20,
  0xc7, 0x0f, 0x23, 0x23, 0xea, 0xf9, 0x29, 0x56, 0xe4, 0x24, 0xd7, 0x00,
  0x19, 0x37, 0x18, 0xfe, 0xec, 0xf1, 0xde, 0x42, 0x33, 0x47, 0x2e, 0xed,
  0x18, 0xf8, 0x24, 0xfb, 0xf6, 0x14, 0xef, 0x0e, 0x16, 0xf1, 0x17, 0xdf,
  0xd4, 0xdf, 0xd8, 0x15, 0xf5, 0x22, 0xe0, 0x26, 0xef, 0x1b, 0x28, 0x02,
  0xf3, 0xfb, 0xfb, 0xea, 0xd2, 0xef, 0x39, 0x38, 0x19, 0x0d, 0xf4, 0x0d,
  0x28, 0x15, 0x15, 0x4a, 0xe9, 0xe8, 0x38, 0x48, 0xe3, 0xf9, 0x02, 0x19,
  0xdb, 0xcf, 0xfb, 0x09, 0xcf, 0x08, 0x13, 0x4c, 0xd0, 0xfb, 0xfe, 0x12,
  0x01, 0xd1, 0xd5, 0x40, 0xe3, 0xfe, 0xe6, 0x1b, 0xf9, 0x1c, 0xe3, 0xe8,
  0xfc, 0xe0, 0xdc, 0x13, 0x13, 0x14, 0x03, 0x2a, 0xfb, 0xe9, 0xd4, 0x24,
  0xdd, 0x00, 0xfb, 0xe5, 0x12, 0x1b, 0x02, 0xf8, 0x11, 0xf5, 0xe2, 0xd8,
  0x17, 0xee, 0x03, 0xf9, 0xe1, 0xeb, 0x31, 0xde, 0x01, 0x38, 0x19, 0xfb,
  0xf9, 0xe2, 0x25, 0xf6, 0xef, 0xf7, 0xd6, 0x27, 0x2e, 0xc8, 0xf4, 0xd3,
  0xdc, 0xff, 0x0f, 0x39, 0x03, 0xeb, 0x1b, 0x07, 0x1a, 0xbb, 0xf3, 0xd1,
  0xc1, 0xf8, 0x38, 0x05, 0x0f, 0x1e, 0x06, 0xda, 0xd7, 0x32, 0x2e, 0xc9,
  0x1f, 0x07, 0x03, 0x13, 0x2a, 0x37, 0xbf, 0xf7, 0x1b, 0xdc, 0x04, 0xda,
  0x34, 0xfa, 0xca, 0x14, 0xf7, 0xcb, 0x17, 0x08, 0x22, 0x31, 0xc9, 0x0d,
  0xf1, 0x09, 0xf5, 0x05, 0xcd, 0x1a, 0x23, 0x22, 0xd4, 0x02, 0xfc, 0x0c,
  0x06, 0xf2, 0x3b, 0xf6, 0xee, 0x04, 0xee, 0x1b, 0x24, 0x09, 0xe6, 0x01,
  0xe5, 0xdc, 0x3e, 0x14, 0xf4, 0x23, 0x0e, 0x10, 0xda, 0xf5, 0x20, 0xfb,
  0xec, 0xe5, 0x08, 0x21, 0x0e, 0x34, 0xe8, 0xdc, 0xf7, 0xf7, 0x0f, 0xeb,
  0x19, 0x13, 0x21, 0xc7, 0xf1, 0xef, 0x1d, 0x07, 0xff, 0xd3, 0x25, 0xcb,
  0x2e, 0x01, 0xe7, 0x11, 0xe1, 0xf9, 0xf2, 0x29, 0xf8, 0x3a, 0xe7, 0x0b,
  0xec, 0xe7, 0x23, 0xc7, 0x05, 0xec, 0xfd, 0x1c, 0xdf, 0xec, 0xef, 0x04,
  0xf3, 0xde, 0xf4, 0x34, 0x0b, 0x17, 0x0b, 0x06, 0xf3, 0xe8, 0xf5, 0x18,
  0x19, 0x06, 0xfa, 0x1c, 0x1e, 0xdc, 0x07, 0xde, 0xc8, 0xd5, 0x04, 0x17,
  0x38, 0xc5, 0xf8, 0xfc, 0x0a, 0xdc, 0xf3, 0xcf, 0xdc, 0xf8, 0x3d, 0x12,
  0x14, 0xf6, 0x2d, 0xce, 0xeb, 0xe4, 0x1b, 0xe4, 0x19, 0xe1, 0xc7, 0x08,
  0x32, 0x3c, 0xc8, 0x17, 0x06, 0x25, 0x05, 0xe3, 0xf0, 0xe9, 0x09, 0xf0,
  0xe8, 0x2a, 0x1e, 0xf1, 0xee, 0xfa, 0x3d, 0x04, 0xed, 0xe6, 0xeb, 0xf5,
  0x3a, 0xf1, 0x1e, 0xf3, 0x15, 0x3f, 0xe8, 0xd5, 0x08, 0x01, 0xe5, 0xfc,
  0xea, 0xf2, 0xde, 0xf8, 0x34, 0x0c, 0x26, 0x05, 0x25, 0xbf, 0x04, 0x03,
  0x18, 0xd9, 0x01, 0xea, 0xe9, 0xec, 0xf5, 0xf2, 0x12, 0x34, 0x20, 0xfb,
  0xbd, 0xdd, 0xea, 0xda, 0xe6, 0x36, 0x19, 0xec, 0x2e, 0xda, 0xf6, 0x07,
  0x1f, 0x2d, 0x06, 0xf0, 0xba, 0x08, 0x2c, 0x32, 0xc9, 0x0e, 0x14, 0x09,
  0x1b, 0xfa, 0xfb, 0x12, 0xe6, 0xfc, 0x13, 0xf1, 0x0a, 0xe5, 0xf7, 0xf6,
  0x0e, 0x32, 0xfc, 0xdf, 0xe0, 0xd2, 0xf5, 0xf0, 0x03, 0x1a, 0xcd, 0xf6,
  0xfe, 0x33, 0xfa, 0xe3, 0xe2, 0xc9, 0x19, 0xea, 0xe5, 0xf7, 0x20, 0x04,
  0x17, 0x29, 0x30, 0x38, 0x16, 0xcf, 0x23, 0xf6, 0x22, 0xf2, 0xf4, 0xfb,
  0xc7, 0xf6, 0x0f, 0x09, 0xf9, 0xf8, 0xca, 0xcc, 0xff, 0xcf, 0x17, 0x0b,
  0x12, 0x01, 0x12, 0x0c, 0x13, 0x0a, 0xf3, 0xed, 0xf1, 0x0d, 0xf1, 0xb1,
  0xf4, 0x1f, 0xe9, 0xfc, 0x0c, 0xf0, 0xf5, 0xf2, 0xd6, 0xdf, 0xf4, 0xd3,
  0x2b, 0x10, 0x03, 0x19, 0xed, 0xf4, 0x00, 0x00, 0xf8, 0xfc, 0x2f, 0x03,
  0x2c, 0x2c, 0x32, 0xee, 0xfc, 0xcf, 0x15, 0xb3, 0xe7, 0x26, 0x2b, 0x3d,
  0xe2, 0xff, 0xf5, 0x0d, 0xeb, 0x0a, 0x13, 0xe9, 0xe2, 0x03, 0xfa, 0xcd,
  0x18, 0x36, 0xca, 0xd7, 0xf6, 0x06, 0xec, 0xd4, 0xfc, 0x02, 0xef, 0xfe,
  0x1e, 0xea, 0xc8, 0xe8, 0xfd, 0xf4, 0xf9, 0xec, 0xf2, 0xfc, 0xd9, 0xf5,
  0x16, 0x23, 0x24, 0xc7, 0x19, 0x22, 0x16, 0xda, 0x2c, 0xfa, 0x08, 0xee,
  0xfd, 0xec, 0x14, 0x13, 0xf8, 0x32, 0x24, 0x10, 0x34, 0xf1, 0xcd, 0xe1,
  0x18, 0xd9, 0xf7, 0xed, 0x0b, 0x03, 0x00, 0xd0, 0x24, 0x03, 0x0f, 0xf3,
  0x04, 0x15, 0xda, 0x00, 0xdc, 0x04, 0xd8, 0xf8, 0x18, 0x0b, 0xf7, 0xd1,
  0xf5, 0x19, 0x1a, 0x14, 0xd9, 0xff, 0x34, 0x19, 0xde, 0x05, 0xff, 0x13,
  0x3e, 0x23, 0x10, 0xe8, 0xe3, 0x0c, 0xf4, 0xdf, 0x3e, 0x1f, 0xe9, 0xe0,
  0x29, 0xce, 0x09, 0x39, 0x01, 0x11, 0xf3, 0x15, 0xfe, 0xf6, 0x39, 0xbd,
  0xe8, 0x14, 0x36, 0xba, 0xea, 0xfd, 0xfc, 0x32, 0x18, 0x11, 0x11, 0xac,
  0xd3, 0x2e, 0xd6, 0x34, 0xf2, 0xe5, 0x05, 0xdf, 0xe4, 0xd1, 0x0a, 0xc3,
  0xec, 0xc5, 0xf9, 0xe8, 0xf3, 0x16, 0x16, 0xcd, 0xc4, 0x08, 0xd5, 0xed,
  0xcd, 0xee, 0x05, 0x07, 0x22, 0x20, 0x0a, 0x1d, 0xfa, 0x07, 0xc7, 0xd3,
  0x2c, 0x05, 0xc5, 0xce, 0xcc, 0xd8, 0x1e, 0xf4, 0x11, 0xee, 0xf0, 0x12,
  0x1e, 0x1d, 0x07, 0x04, 0x2c, 0xf5, 0x20, 0x0d, 0x03, 0x10, 0xce, 0x1c,
  0xe8, 0xf8, 0xf7, 0xff, 0x09, 0xed, 0x39, 0x20, 0xf8, 0x22, 0xeb, 0xd9,
  0xc7, 0x06, 0x1d, 0x0a, 0xe9, 0xbe, 0xfe, 0x13, 0xf5, 0xe5, 0xf0, 0xd8,
  0xf9, 0xc0, 0xe0, 0x11, 0x00, 0xe7, 0x1d, 0x05, 0x07, 0xf2, 0xd1, 0xd6,
  0xfd, 0xf5, 0xd7, 0x05, 0x01, 0xfd, 0x15, 0xe3, 0x03, 0x12, 0x2f, 0x27,
  0x29, 0xed, 0x08, 0x0d, 0x02, 0x03, 0xf8, 0xe4, 0x09, 0xcc, 0xea, 0x00,
  0x1b, 0xfb, 0xea, 0xdd, 0x1f, 0x1e, 0xe6, 0xe6, 0xc2, 0xea, 0x19, 0xee,
  0x14, 0xd0, 0xe7, 0xd3, 0xe8, 0xce, 0xfd, 0xf7, 0xd7, 0xd7, 0x32, 0xe1,
  0xfd, 0xf5, 0x07, 0x08, 0xd2, 0x33, 0xe0, 0xe4, 0x10, 0xda, 0x08, 0xfc,
  0xf4, 0xd2, 0xc8, 0xb9, 0xef, 0x15, 0xee, 0x31, 0xfa, 0xde, 0xd6, 0x01,
  0xf0, 0x0c, 0xf7, 0xf5, 0xdc, 0x12, 0xc4, 0xe0, 0xf0, 0x19, 0x04, 0xc7,
  0x13, 0x06, 0x3b, 0xca, 0x00, 0xf3, 0x3d, 0xdd, 0xbd, 0x00, 0xe6, 0xed,
  0x11, 0xf2, 0xee, 0x29, 0x29, 0xf3, 0xd6, 0xce, 0xc5, 0x3c, 0xec, 0x0d,
  0xef, 0xfe, 0x01, 0x1e, 0xf6, 0x0f, 0x07, 0xdd, 0x02, 0xed, 0x0d, 0xe2,
  0xd1, 0x37, 0x32, 0x02, 0xf3, 0x2b, 0x00, 0xf5, 0x11, 0xc2, 0xf1, 0xd4,
  0xd8, 0x1c, 0xd9, 0xd7, 0xea, 0x2e, 0x12, 0xf2, 0xf1, 0x0b, 0x10, 0xb8,
  0x09, 0xfd, 0x0b, 0x10, 0x06, 0x21, 0x13, 0x06, 0xf9, 0x2e, 0xc6, 0xe4,
  0xed, 0xf9, 0x05, 0xe9, 0xd6, 0xfc, 0x06, 0xc8, 0xe7, 0x01, 0x01, 0xe5,
  0xe8, 0x3d, 0x24, 0x0f, 0xe2, 0xe3, 0x3b, 0xf2, 0xe3, 0xe0, 0xe7, 0x0b,
  0x0b, 0xfd, 0x00, 0xdc, 0x2e, 0x16, 0x1e, 0xf8, 0x22, 0x20, 0xeb, 0xe1,
  0xd8, 0xef, 0x05, 0xf9, 0xf6, 0x11, 0x2e, 0xe4, 0xd7, 0x0e, 0x1c, 0x2b,
  0x0f, 0x03, 0x1c, 0xfc, 0x0d, 0xba, 0x27, 0x04, 0xee, 0x17, 0xfb, 0xed,
  0x04, 0x18, 0xfb, 0x13, 0x37, 0xfc, 0xff, 0xb6, 0xf8, 0xfb, 0xc2, 0xe2,
  0x17, 0x17, 0xd5, 0xfa, 0xbb, 0xe4, 0xf2, 0xf2, 0x01, 0xf6, 0xfd, 0xe4,
  0x19, 0xea, 0x35, 0x1b, 0xfc, 0xf7, 0x05, 0xca, 0x16, 0xe7, 0x0e, 0x3b,
  0xf8, 0xbf, 0x17, 0xf5, 0xdb, 0x12, 0x15, 0x23, 0xf3, 0xfa, 0x34, 0xcd,
  0xdf, 0x00, 0xfa, 0xf6, 0x38, 0xe8, 0x3d, 0x05, 0xc1, 0x17, 0xe0, 0xd5,
  0x05, 0x1f, 0x15, 0xf4, 0xe0, 0x3a, 0xc1, 0xc7, 0xf1, 0x24, 0x11, 0xd4,
  0xe9, 0xe1, 0x0d, 0x0b, 0xf2, 0xe0, 0x24, 0xc9, 0xc1, 0xfc, 0xed, 0x04,
  0x0f, 0xfb, 0xd2, 0xb1, 0x14, 0xf5, 0x0e, 0xef, 0x17, 0xf8, 0x0e, 0xfb,
  0xee, 0xee, 0xc4, 0x03, 0x1a, 0xeb, 0x23, 0xd6, 0xe2, 0xf3, 0xf4, 0x07,
  0x10, 0xf8, 0x1d, 0xbd, 0x16, 0x36, 0x04, 0xed, 0x1e, 0xd7, 0xdf, 0xcb,
  0x22, 0xca, 0x0c, 0xf6, 0x07, 0x33, 0xe5, 0x0b, 0xe5, 0x1f, 0xe0, 0x0a,
  0xee, 0xe9, 0xd8, 0xdd, 0xbd, 0x28, 0x17, 0x06, 0x2f, 0xf0, 0x0a, 0xf4,
  0xfc, 0xb9, 0x33, 0xfd, 0xf2, 0x0e, 0xe2, 0xf3, 0x07, 0x08, 0x35, 0xe5,
  0xf7, 0xee, 0xda, 0xe3, 0x0e, 0x04, 0xd1, 0x2e, 0x29, 0x25, 0xf7, 0xe4,
  0xf1, 0xf1, 0x3f, 0xfb, 0xf2, 0xe1, 0xe6, 0xd0, 0x04, 0xdb, 0xd3, 0xef,
  0x16, 0xdd, 0xee, 0xff, 0xde, 0x13, 0xf7, 0xfa, 0xef, 0x17, 0xf1, 0xf3,
  0xe8, 0x00, 0x07, 0x07, 0xf5, 0xf0, 0xfe, 0xd1, 0x2c, 0xd1, 0xd3, 0x2a,
  0x1e, 0x0c, 0x00, 0xf3, 0xf3, 0xe1, 0x3c, 0xce, 0xef, 0x37, 0x05, 0x02,
  0xe2, 0xf7, 0x02, 0xe1, 0x00, 0x0e, 0xe6, 0xdf, 0xf0, 0xf0, 0x0e, 0xf7,
  0xeb, 0xf0, 0xfa, 0xda, 0x1e, 0x31, 0x1b, 0x3d, 0x26, 0x00, 0x2c, 0xd4,
  0xef, 0x23, 0xf9, 0xf0, 0x35, 0xd3, 0x11, 0x12, 0xfe, 0xcc, 0x06, 0xd6,
  0xee, 0xff, 0xdb, 0x16, 0x0c, 0xca, 0xef, 0x0a, 0xd0, 0xfe, 0x22, 0xf9,
  0xe1, 0xdb, 0x3b, 0x03, 0x0a, 0xee, 0x27, 0xc9, 0xcb, 0xcf, 0xf5, 0x27,
  0xda, 0xfc, 0xea, 0xee, 0x00, 0xee, 0x0f, 0x40, 0xf7, 0xd9, 0x02, 0xe1,
  0x13, 0x19, 0x01, 0x02, 0xf3, 0x10, 0xe4, 0x25, 0x02, 0xcc, 0x20, 0xff,
  0x2a, 0xfa, 0xf5, 0xeb, 0xf7, 0x0f, 0xf4, 0xce, 0x04, 0xe2, 0x2e, 0xc9,
  0xd9, 0x17, 0xf5, 0x11, 0x2c, 0x04, 0x02, 0xbe, 0x34, 0x1d, 0xc4, 0x19,
  0xfd, 0x14, 0xf6, 0xe5, 0xe8, 0x1c, 0x25, 0xcf, 0x15, 0xfa, 0xed, 0xf8,
  0x16, 0x0d, 0x17, 0xf7, 0x0c, 0xe4, 0x30, 0x11, 0x0c, 0xf0, 0x27, 0x33,
  0xde, 0xdb, 0x06, 0x11, 0xff, 0x3e, 0x11, 0x22, 0x00, 0xd9, 0x10, 0xdd,
  0xf5, 0x23, 0x15, 0x1a, 0xf1, 0xe5, 0x1c, 0xee, 0x0e, 0x22, 0x10, 0xfd,
  0x0c, 0x0c, 0xdd, 0xdf, 0x05, 0x17, 0xf7, 0x08, 0x05, 0xec, 0xfa, 0xd8,
  0xe0, 0x16, 0xce, 0xea, 0xda, 0xe4, 0xf6, 0x29, 0x12, 0x06, 0x07, 0xcb,
  0xe5, 0xe1, 0xd3, 0xe7, 0xe7, 0xd6, 0x31, 0xdb, 0x22, 0xc5, 0xe9, 0xe2,
  0x06, 0x31, 0x18, 0xff, 0xd4, 0x1f, 0xf7, 0xd6, 0x13, 0x23, 0xdc, 0xcb,
  0x1f, 0x0c, 0x35, 0xaf, 0xfb, 0xef, 0xd2, 0x14, 0x2d, 0x01, 0x0e, 0xd7,
  0xed, 0x0d, 0x14, 0x10, 0x30, 0xee, 0x2a, 0xbc, 0x22, 0x29, 0x18, 0x3c,
  0xd0, 0xe2, 0x25, 0xf2, 0x16, 0x00, 0xf5, 0x27, 0x18, 0x1c, 0xdb, 0xf3,
  0xc8, 0x0e, 0x13, 0xdb, 0x2b, 0x19, 0x0c, 0xe8, 0x35, 0x16, 0xe1, 0xd4,
  0x14, 0xeb, 0xf3, 0xe2, 0xf0, 0xea, 0x16, 0xf5, 0xff, 0x00, 0xdd, 0xf6,
  0xf4, 0x2d, 0x30, 0xe2, 0xe9, 0x27, 0xc7, 0xfb, 0xd9, 0xeb, 0x00, 0xf8,
  0x11, 0x28, 0xe2, 0x07, 0xe7, 0xcf, 0x0d, 0xee, 0x16, 0x03, 0x18, 0x15,
  0x23, 0x3c, 0xf6, 0xec, 0xf4, 0xd1, 0x13, 0x03, 0x03, 0xf2, 0x1e, 0xed,
  0xfb, 0x17, 0xf6, 0x0d, 0x1a, 0x0a, 0x0b, 0xf3, 0xce, 0xfe, 0xe3, 0xf1,
  0x0f, 0x03, 0xe1, 0x00, 0x0d, 0x08, 0x10, 0xc1, 0xf4, 0xee, 0x08, 0xe9,
  0x1d, 0x10, 0xe7, 0xfb, 0xe6, 0x1b, 0xe0, 0xe4, 0x1a, 0xeb, 0x2a, 0x1f,
  0xe8, 0xf9, 0x0b, 0xec, 0x04, 0x34, 0xc2, 0x08, 0x02, 0x1b, 0xed, 0x03,
  0xcf, 0x02, 0xdf, 0xd0, 0x02, 0xfb, 0xee, 0x00, 0xd0, 0x23, 0x00, 0xba,
  0x0e, 0x06, 0x38, 0xe0, 0xee, 0x04, 0xe6, 0xd9, 0xe3, 0x10, 0xdb, 0x28,
  0xfa, 0xc7, 0x2d, 0x15, 0xd6, 0xda, 0xf1, 0x11, 0x0d, 0xce, 0x1a, 0x26,
  0x09, 0xfc, 0x15, 0x18, 0xea, 0x14, 0x21, 0xef, 0xf8, 0x05, 0x1e, 0xce,
  0xcc, 0xf9, 0xff, 0x01, 0xcd, 0xf2, 0xc3, 0x06, 0xfe, 0xe9, 0xd8, 0xab,
  0x0e, 0xc7, 0x1c, 0xeb, 0x06, 0xf6, 0xd0, 0xfe, 0x12, 0xbd, 0x18, 0x37,
  0xf2, 0xe0, 0xf9, 0xc0, 0xdc, 0xec, 0xce, 0x3a, 0xe1, 0x13, 0x2d, 0xb3,
  0xd7, 0x10, 0xf4, 0x1e, 0xf1, 0x01, 0xf3, 0xee, 0xc8, 0x27, 0x2e, 0xf9,
  0xf1, 0xf6, 0x1b, 0xe4, 0xd5, 0x3a, 0x40, 0x1c, 0x01, 0x21, 0x0b, 0xc9,
  0x1d, 0x28, 0xea, 0x2b, 0xee, 0xe2, 0xe6, 0xd2, 0xeb, 0x17, 0x10, 0xe9,
  0xea, 0x28, 0xee, 0xea, 0x0c, 0xcd, 0x07, 0x14, 0xf0, 0x2d, 0x05, 0xe6,
  0xcc, 0xf5, 0xf7, 0xf4, 0x0a, 0xe7, 0xfc, 0x24, 0xe4, 0xe1, 0xee, 0x1b,
  0xf7, 0x0a, 0x0f, 0xe3, 0x02, 0xda, 0x27, 0x38, 0x28, 0xbe, 0x08, 0xc7,
  0xf5, 0x13, 0xf4, 0xed, 0x1b, 0xd1, 0xd7, 0x0f, 0x1e, 0xfd, 0x26, 0x04,
  0x0d, 0x12, 0x26, 0x13, 0x07, 0xd1, 0x08, 0x28, 0xef, 0x00, 0xfe, 0xea,
  0x09, 0x0c, 0x25, 0xea, 0x00, 0xee, 0x00, 0xf9, 0x16, 0x2f, 0x04, 0xef,
  0xec, 0xeb, 0xe9, 0x0a, 0x12, 0x12, 0xdb, 0xeb, 0xe6, 0xed, 0x14, 0xe6,
  0x22, 0x1e, 0x14, 0x3b, 0xfd, 0x0f, 0xd0, 0x0b, 0xdb, 0x0a, 0xd5, 0x01,
  0x05, 0x16, 0x0a, 0x06, 0x1b, 0xc1, 0x0c, 0x09, 0xee, 0xf3, 0xf4, 0xef,
  0x0f, 0xe7, 0x14, 0x38, 0xd0, 0xef, 0x3d, 0xd9, 0x30, 0xe6, 0x1a, 0x2a,
  0x05, 0x1c, 0x04, 0x1c, 0xf9, 0xe7, 0xe3, 0xf7, 0x19, 0x2c, 0xff, 0xc0,
  0x04, 0xec, 0xd2, 0xe6, 0xf2, 0xc8, 0xd3, 0xc7, 0x18, 0xf8, 0xdc, 0x09,
  0xdf, 0x1f, 0x0a, 0x20, 0x07, 0xfe, 0xea, 0xf5, 0xf1, 0xd7, 0xfe, 0x19,
  0x0f, 0x04, 0x2e, 0xf5, 0x0c, 0xc8, 0xd2, 0xf7, 0x11, 0xeb, 0xd2, 0x20,
  0xf2, 0xea, 0x0a, 0x09, 0xd9, 0xed, 0xdf, 0x04, 0xeb, 0x0e, 0xf6, 0xcf,
  0xe5, 0xe2, 0xe9, 0x26, 0x05, 0xe2, 0xee, 0x13, 0x01, 0x25, 0x0c, 0x0b,
  0x0c, 0x0c, 0x38, 0x1c, 0x00, 0x3f, 0xed, 0xee, 0xe7, 0xee, 0xef, 0xc9,
  0xe8, 0xf1, 0xea, 0xfa, 0xe5, 0xdb, 0x07, 0x07, 0xf7, 0xe8, 0xfd, 0x11,
  0x1a, 0x34, 0x14, 0xb4, 0xfd, 0xdb, 0x14, 0xf7, 0x04, 0x20, 0x3b, 0xf5,
  0x2e, 0xff, 0xe8, 0xf4, 0x37, 0xec, 0xf9, 0xec, 0x0b, 0x16, 0xe7, 0xe2,
  0x0a, 0xff, 0xec, 0xea, 0xdc, 0x3c, 0xd0, 0x0a, 0x31, 0x1d, 0xe2, 0x06,
  0x00, 0xf0, 0xe6, 0x0d, 0xd1, 0xfd, 0xe8, 0xf7, 0x1b, 0xfe, 0x41, 0xd8,
  0xe7, 0xf1, 0x12, 0xfb, 0x2b, 0x0e, 0x1b, 0x21, 0xe2, 0xc0, 0xc2, 0xeb,
  0xf5, 0x31, 0x07, 0xff, 0xed, 0x1d, 0x15, 0xea, 0xdf, 0xf1, 0x0f, 0x07,
  0x16, 0x34, 0xff, 0xd4, 0x18, 0x11, 0x38, 0xeb, 0xd8, 0x0e, 0x36, 0xd5,
  0xe6, 0x12, 0x3a, 0xd9, 0x09, 0xf1, 0x22, 0xd5, 0x03, 0xe0, 0x09, 0x20,
  0xd7, 0xec, 0xda, 0xc6, 0xe0, 0x31, 0xf2, 0x1e, 0x05, 0xf4, 0x2c, 0x08,
  0xcf, 0xc6, 0xf9, 0x31, 0xf6, 0xdc, 0x1e, 0x2c, 0xeb, 0xc3, 0xef, 0xd1,
  0xf3, 0x03, 0x05, 0xd6, 0x0d, 0xf7, 0x04, 0xff, 0x0c, 0xea, 0x0a, 0xc4,
  0x23, 0x23, 0xd4, 0x1f, 0xe2, 0xf8, 0xcf, 0xec, 0xdc, 0x1a, 0x1e, 0x3b,
  0x24, 0x1c, 0xee, 0xef, 0x0b, 0xe7, 0xfc, 0xda, 0x28, 0xf6, 0x0f, 0xd9,
  0x1e, 0xfe, 0xed, 0xe6, 0x1f, 0xef, 0xd7, 0xe6, 0x12, 0x0c, 0xe0, 0xef,
  0x1f, 0x05, 0xfd, 0xf0, 0x0b, 0x29, 0x13, 0xc0, 0xc8, 0xe7, 0x35, 0xc4,
  0x15, 0xec, 0x04, 0x31, 0x3f, 0x0b, 0xd1, 0xe1, 0xef, 0x27, 0xd5, 0xdc,
  0xe8, 0xcc, 0x1a, 0xd6, 0x11, 0xdc, 0xf1, 0x36, 0x16, 0x12, 0xe5, 0x07,
  0x1b, 0xfe, 0x2e, 0x00, 0xd1, 0xdf, 0x28, 0xf1, 0x1a, 0xf0, 0x23, 0x37,
  0x13, 0x19, 0x1a, 0xd4, 0xbe, 0xf9, 0x2c, 0x27, 0xf7, 0xca, 0xcd, 0x20,
  0xf4, 0x20, 0xe2, 0x07, 0xe8, 0x17, 0x00, 0xf4, 0x03, 0x19, 0x03, 0x35,
  0x1b, 0x06, 0xed, 0xd7, 0xef, 0x26, 0x3d, 0xf5, 0x2d, 0x04, 0xff, 0xda,
  0x1b, 0xe7, 0xdd, 0xee, 0x1d, 0xc2, 0x13, 0xfd, 0x14, 0xcf, 0xc0, 0xf8,
  0xde, 0xef, 0x21, 0xe5, 0xf8, 0xdf, 0x26, 0x08, 0xfa, 0x25, 0x00, 0xc7,
  0x17, 0xd7, 0x00, 0x26, 0x0f, 0x1d, 0x12, 0xd3, 0xd3, 0xfe, 0xf8, 0xe5,
  0x0b, 0xd1, 0x0f, 0xe2, 0x0a, 0xdf, 0x16, 0xf0, 0xef, 0xf7, 0xed, 0xcd,
  0xd8, 0xcb, 0x11, 0x22, 0x07, 0x11, 0x0c, 0xf2, 0xc6, 0xf7, 0x03, 0xc5,
  0x12, 0x0d, 0x33, 0xf9, 0x2b, 0x07, 0xd6, 0xf2, 0x27, 0xfe, 0x08, 0xd2,
  0x1e, 0xfa, 0x2b, 0xf9, 0x12, 0xcf, 0x21, 0xe6, 0x0b, 0xf4, 0x0f, 0x05,
  0x14, 0xfd, 0xf4, 0xba, 0xec, 0xe1, 0x05, 0xd7, 0x13, 0xf8, 0x08, 0xfa,
  0x37, 0x0b, 0x09, 0xd1, 0xef, 0x26, 0x15, 0xe5, 0x13, 0x1d, 0xe8, 0x1d,
  0x0c, 0xcc, 0xf0, 0xcf, 0x11, 0x2a, 0x1f, 0x06, 0x0b, 0xfb, 0x0b, 0xca,
  0x14, 0xde, 0x00, 0x3a, 0x19, 0x07, 0xf0, 0xf7, 0x22, 0x04, 0xd1, 0x1b,
  0x04, 0xf7, 0xfe, 0xea, 0x16, 0xe0, 0x35, 0xd6, 0xeb, 0x1f, 0x05, 0x20,
  0xd0, 0x09, 0xef, 0x0a, 0xdb, 0x05, 0xcc, 0x07, 0x22, 0xf4, 0x05, 0xd3,
  0x01, 0x24, 0xf3, 0xfd, 0xf3, 0xf5, 0x0a, 0x18, 0xff, 0x1d, 0xe2, 0x06,
  0xdd, 0xff, 0xf1, 0xf2, 0xf8, 0xeb, 0xe7, 0xe0, 0xf2, 0x16, 0xfb, 0x3a,
  0xfd, 0x1d, 0xe9, 0x09, 0xe0, 0x10, 0xf0, 0x1f, 0x0a, 0x0d, 0x32, 0xf0,
  0x13, 0x2e, 0x09, 0xe2, 0x13, 0xfd, 0xed, 0xff, 0xf4, 0x2c, 0xfb, 0xfb,
  0xfb, 0xff, 0xe4, 0xc9, 0x2e, 0x1d, 0x06, 0x10, 0xfe, 0x04, 0xf0, 0xdb,
  0x1a, 0x2d, 0x1c, 0xe2, 0xc7, 0xc2, 0x00, 0x0c, 0x12, 0xff, 0xe9, 0x1b,
  0xf4, 0x14, 0xf4, 0xd4, 0xf0, 0xe3, 0xdd, 0x08, 0x03, 0xf5, 0x0d, 0xb7,
  0xc9, 0x19, 0x02, 0xe8, 0x0b, 0xc5, 0x1b, 0x02, 0xe5, 0x1c, 0xf6, 0x22,
  0xe1, 0x07, 0x01, 0xeb, 0xe3, 0x0d, 0x2e, 0x31, 0xe4, 0xfa, 0x0e, 0x27,
  0xfe, 0xdb, 0xea, 0xfe, 0xe9, 0x03, 0x13, 0xf6, 0x19, 0x00, 0xe2, 0xfc,
  0xeb, 0xee, 0x1d, 0xf6, 0xd3, 0x07, 0x14, 0xc0, 0xe8, 0xd3, 0x0a, 0x33,
  0xcc, 0x06, 0xed, 0xe7, 0xf8, 0x1a, 0x03, 0x1d, 0x0a, 0x14, 0x01, 0x0f,
  0xf2, 0xf8, 0xfd, 0x2b, 0x0b, 0x10, 0x22, 0x1d, 0xfe, 0xe7, 0x2c, 0xec,
  0xfa, 0x09, 0x25, 0xd8, 0x15, 0x10, 0x05, 0xfd, 0x02, 0xda, 0xdf, 0xeb,
  0x13, 0xf5, 0xe3, 0xfb, 0x02, 0xe0, 0x18, 0x04, 0x29, 0xf7, 0x26, 0xeb,
  0xc1, 0x25, 0x14, 0x0d, 0xe4, 0xec, 0xca, 0xf8, 0xe9, 0xd4, 0x0d, 0xcd,
  0xec, 0x34, 0x14, 0xf8, 0x07, 0x20, 0x2c, 0x0d, 0xf4, 0xf4, 0x0d, 0xd6,
  0xef, 0x3d, 0xfc, 0xe7, 0xe4, 0xc4, 0xdd, 0x12, 0x09, 0xf7, 0xde, 0x3e,
  0x39, 0x00, 0x33, 0xbd, 0xd5, 0x06, 0x27, 0x09, 0xd0, 0xf8, 0xf8, 0xe3,
  0x20, 0x00, 0x29, 0xfc, 0x27, 0x18, 0xd6, 0xe1, 0x06, 0xdf, 0x1f, 0xf6,
  0x15, 0x10, 0x38, 0xf1, 0xe7, 0x38, 0x03, 0x0b, 0xcf, 0xbb, 0xdb, 0x04,
  0xf0, 0x3d, 0xed, 0xe5, 0x0c, 0x00, 0xf4, 0xe2, 0xf4, 0x1b, 0x2f, 0xd9,
  0x22, 0xfd, 0xe1, 0x10, 0x0c, 0xe5, 0x05, 0x1f, 0xda, 0xf2, 0x10, 0xf1,
  0xd4, 0x16, 0x26, 0xf1, 0xf3, 0xf8, 0x0c, 0x0e, 0x0e, 0x04, 0x3b, 0xdc,
  0x01, 0xd5, 0xe6, 0x02, 0xdc, 0x2a, 0x25, 0xea, 0xef, 0xfe, 0xc9, 0xe3,
  0xf1, 0xf8, 0xc6, 0x18, 0xe0, 0xc6, 0xd9, 0xd2, 0x11, 0x10, 0x14, 0x33,
  0xe9, 0x22, 0x16, 0xee, 0xec, 0xf8, 0xdd, 0x1f, 0x1a, 0xc0, 0xeb, 0x10,
  0xf7, 0x06, 0xd9, 0xee, 0xe9, 0xf1, 0xef, 0x0a, 0x00, 0x10, 0x14, 0xf9,
  0x18, 0x0b, 0xd2, 0xce, 0xf6, 0x39, 0xc4, 0xd4, 0xf0, 0xf4, 0xf7, 0xfa,
  0xd6, 0xe7, 0x2c, 0xcd, 0x1d, 0x25, 0xe8, 0xec, 0x28, 0x35, 0x05, 0x2d,
  0x13, 0xd4, 0xf7, 0x0e, 0xfc, 0xd2, 0x21, 0x0e, 0x08, 0xfc, 0xfa, 0x2d,
  0xf1, 0xcf, 0x14, 0xf5, 0xd5, 0x02, 0xcb, 0x0e, 0x09, 0x1a, 0x30, 0x00,
  0x26, 0xc2, 0xe4, 0xe4, 0xfb, 0xdf, 0xe3, 0xf6, 0xe3, 0xfc, 0xe8, 0xf4,
  0x08, 0xe9, 0xf8, 0x1a, 0x0b, 0xca, 0xd1, 0xdd, 0x00, 0xf6, 0x18, 0x0a,
  0x2d, 0xbc, 0xc7, 0xe8, 0x24, 0xc2, 0x00, 0xf6, 0xd6, 0x1e, 0xf9, 0xf5,
  0xdb, 0xd8, 0x10, 0x11, 0x0e, 0x09, 0xff, 0xed, 0x1d, 0x34, 0x0a, 0x1c,
  0x32, 0xf4, 0xfc, 0x24, 0xc4, 0x01, 0x0b, 0x15, 0xf6, 0xdb, 0xf5, 0x01,
  0x0c, 0xe9, 0x27, 0x15, 0xf6, 0x12, 0xf3, 0x30, 0xd2, 0x06, 0x06, 0xcc,
  0x1f, 0x14, 0x05, 0x06, 0xf6, 0x2a, 0x2a, 0x0d, 0xfc, 0x0a, 0xfb, 0x1b,
  0xfd, 0x00, 0x1e, 0x25, 0xfb, 0xf5, 0xfb, 0xf7, 0x08, 0xd2, 0xc7, 0x0b,
  0x0e, 0x0c, 0xfd, 0xc4, 0xee, 0xe5, 0xff, 0x2f, 0x19, 0xe7, 0x08, 0xec,
  0x04, 0x10, 0xfa, 0x00, 0x08, 0xe7, 0xfe, 0x11, 0x0d, 0x2d, 0x1d, 0x1b,
  0x12, 0xd2, 0x1d, 0xec, 0x0b, 0x10, 0x40, 0x01, 0xec, 0x34, 0x2d, 0xcf,
  0x02, 0xd1, 0x11, 0xe7, 0x1f, 0xec, 0x11, 0x27, 0x0a, 0xd6, 0x08, 0x23,
  0xfc, 0xfa, 0xff, 0x2d, 0xf2, 0x17, 0xfc, 0xbf, 0x04, 0x2a, 0x29, 0x08,
  0x01, 0x15, 0xe7, 0x14, 0xe0, 0xc8, 0xcc, 0xe2, 0xf7, 0x0b, 0xd5, 0xf9,
  0xd6, 0x22, 0x2a, 0xdb, 0x07, 0x1d, 0x3c, 0x27, 0xf5, 0xf5, 0x00, 0x26,
  0xfe, 0x29, 0xc8, 0x27, 0x18, 0x1f, 0xef, 0xe0, 0xf5, 0x02, 0x1a, 0xe4,
  0xc3, 0xe8, 0xce, 0xe6, 0x23, 0x1e, 0xd0, 0xff, 0xd5, 0x15, 0xe4, 0xee,
  0xef, 0x02, 0xf4, 0x26, 0x0b, 0xf5, 0x03, 0xf7, 0x13, 0xd7, 0x19, 0xee,
  0x0c, 0xfc, 0xd3, 0x17, 0x24, 0x01, 0x14, 0xf8, 0x13, 0xd1, 0xf5, 0xf2,
  0xf8, 0xd6, 0x0a, 0xfc, 0xe0, 0x22, 0x0a, 0x03, 0x12, 0x05, 0xdd, 0x17,
  0x03, 0xf8, 0xe6, 0xfc, 0x12, 0xef, 0x24, 0x1c, 0xc7, 0x00, 0x19, 0xee,
  0x1e, 0x0b, 0xf0, 0xe5, 0xd3, 0xe9, 0xdd, 0xef, 0x12, 0xea, 0xc1, 0x27,
  0xe7, 0x39, 0xcf, 0x14, 0xe9, 0x1f, 0xed, 0xf7, 0xf1, 0xfd, 0xda, 0x0c,
  0x22, 0x20, 0xee, 0xeb, 0x10, 0xf3, 0xfe, 0xea, 0xf0, 0x21, 0xe7, 0xfd,
  0xf6, 0xff, 0x3a, 0xff, 0x04, 0xea, 0xff, 0x2a, 0x0f, 0xf6, 0x23, 0x06,
  0xff, 0xf5, 0xf8, 0x07, 0xe8, 0x29, 0xdf, 0xd2, 0xf8, 0x23, 0x08, 0xfb,
  0x0d, 0xd1, 0xbf, 0xda, 0x37, 0x1d, 0xd0, 0xe1, 0x1f, 0xf1, 0x12, 0xe7,
  0x22, 0xde, 0xea, 0x16, 0x0b, 0xff, 0x05, 0xe8, 0xe4, 0xd2, 0x37, 0xfe,
  0x1f, 0x09, 0x33, 0xf9, 0x12, 0x36, 0x11, 0xff, 0xf1, 0xed, 0xed, 0xfc,
  0xd7, 0x35, 0xfe, 0xe4, 0xe1, 0x00, 0x0d, 0x28, 0xec, 0x19, 0x0c, 0x11,
  0x18, 0xd9, 0x0d, 0xeb, 0x20, 0xdf, 0xd6, 0xf4, 0x11, 0x3d, 0xe6, 0xd3,
  0x07, 0xf4, 0xf8, 0xfa, 0x0a, 0xe6, 0x0c, 0x1c, 0x00, 0xe7, 0xf3, 0x14,
  0xf8, 0xd5, 0x1a, 0xd3, 0xf4, 0xef, 0xce, 0x06, 0x1c, 0x28, 0xc6, 0xda,
  0xc9, 0xcb, 0xe5, 0x20, 0xfb, 0xfa, 0xe4, 0xf1, 0xe9, 0x3c, 0x26, 0xd4,
  0xff, 0x1b, 0xf9, 0xbe, 0xc1, 0x13, 0xf4, 0x19, 0xe1, 0x0b, 0xed, 0xe4,
  0x29, 0x1d, 0x3e, 0xe0, 0x16, 0x1e, 0xcd, 0x0f, 0xe0, 0x1f, 0xef, 0xde,
  0xfc, 0xf0, 0x03, 0xd5, 0x27, 0xeb, 0x10, 0x02, 0xcd, 0xf3, 0x17, 0xf9,
  0x00, 0x2a, 0x00, 0x1e, 0x00, 0x20, 0x2c, 0x09, 0x17, 0xed, 0x34, 0x13,
  0x11, 0xce, 0xf0, 0x01, 0xe5, 0xd8, 0xde, 0xf6, 0xf4, 0x20, 0xff, 0x22,
  0xd8, 0x02, 0xce, 0x1d, 0x00, 0xfe, 0xf6, 0xe1, 0xd8, 0x04, 0xe5, 0x1d,
  0x28, 0xd4, 0xc4, 0xe7, 0xdd, 0xc8, 0x29, 0xe4, 0x0a, 0x19, 0xd9, 0xc8,
  0xf0, 0x09, 0x09, 0xe6, 0xed, 0xe6, 0x13, 0x1f, 0xe9, 0x0a, 0xd7, 0x0d,
  0x35, 0x04, 0xf9, 0x1a, 0xf3, 0xe2, 0x08, 0x2c, 0xfd, 0xff, 0x21, 0xef,
  0xe3, 0xea, 0x0b, 0xdb, 0x08, 0xfc, 0xf0, 0x10, 0xea, 0x1d, 0xfc, 0xe3,
  0xdb, 0x09, 0xf4, 0x05, 0x01, 0x29, 0xee, 0xfc, 0x1a, 0xfb, 0xe0, 0x2f,
  0xf6, 0x22, 0xfb, 0x0f, 0xdf, 0xfd, 0xe9, 0xea, 0xe8, 0xf4, 0xe4, 0x26,
  0xe6, 0x1b, 0xf1, 0xf1, 0x0a, 0x3a, 0xf3, 0xe4, 0x10, 0xcb, 0x10, 0xe2,
  0x22, 0x0f, 0xd2, 0x1b, 0x22, 0x11, 0x2b, 0x2c, 0x1d, 0xfe, 0x14, 0xe7,
  0x27, 0xf4, 0x2f, 0x04, 0x37, 0x27, 0x04, 0x0d, 0x0d, 0xf8, 0xc9, 0x05,
  0x07, 0xfb, 0x15, 0x18, 0x30, 0x2b, 0x16, 0x1d, 0xfc, 0x0c, 0xfe, 0x00,
  0x3f, 0x12, 0xdf, 0xff, 0x21, 0x06, 0x23, 0x02, 0x07, 0xf1, 0x0f, 0x00,
  0x0c, 0x02, 0x24, 0x17, 0xef, 0xec, 0xea, 0xdf, 0x26, 0xed, 0x14, 0xfd,
  0x13, 0xea, 0x38, 0xf7, 0xfc, 0x1f, 0xf0, 0x00, 0xd1, 0x02, 0x10, 0x33,
  0x13, 0x21, 0xda, 0x0a, 0x23, 0x0b, 0x2f, 0xfc, 0x1a, 0xf3, 0x00, 0x15,
  0xd9, 0x35, 0x2a, 0xc9, 0x0f, 0xe0, 0x14, 0xec, 0xd8, 0x2a, 0xe1, 0x0d,
  0xfd, 0xf6, 0xfe, 0xfe, 0x2b, 0x22, 0xf0, 0xcb, 0xf2, 0xee, 0xe9, 0xe6,
  0x12, 0x06, 0xd7, 0xef, 0xc2, 0xd0, 0xdc, 0x0e, 0xde, 0x05, 0x12, 0x09,
  0x11, 0xc0, 0x3b, 0xe9, 0x30, 0x24, 0xfb, 0xf2, 0x20, 0xf7, 0x32, 0xfb,
  0xfb, 0xf4, 0xef, 0x1d, 0xc1, 0xff, 0xe8, 0x21, 0x09, 0xf4, 0x0f, 0x0e,
  0xdc, 0x0b, 0x0f, 0xdb, 0x30, 0xc7, 0xec, 0x06, 0xd4, 0x12, 0xfd, 0xe2,
  0x05, 0xe4, 0x22, 0xdb, 0x1b, 0xff, 0xdb, 0xff, 0xfe, 0x15, 0x16, 0xff,
  0xdd, 0xce, 0xed, 0xf0, 0x05, 0xfb, 0xff, 0x35, 0xe8, 0xea, 0x11, 0xe2,
  0x0d, 0xe8, 0x1c, 0xff, 0x1a, 0x2d, 0xe4, 0xf8, 0xff, 0xe0, 0x16, 0xef,
  0xfe, 0xc2, 0x14, 0xd9, 0x01, 0x1d, 0xee, 0xf4, 0xd3, 0xe1, 0xd5, 0x24,
  0x19, 0xed, 0x0e, 0xe3, 0xe4, 0x28, 0xef, 0xdd, 0xda, 0xcf, 0x34, 0xfb,
  0xcf, 0x04, 0x06, 0xfe, 0x0e, 0x05, 0x13, 0x07, 0xe0, 0xfe, 0x20, 0x1b,
  0x09, 0x17, 0xec, 0x04, 0x16, 0x00, 0xe2, 0x08, 0xff, 0x07, 0xed, 0xd6,
  0x03, 0x22, 0x41, 0x20, 0xf6, 0x15, 0xff, 0x26, 0xfe, 0x05, 0x16, 0xe2,
  0x11, 0xd5, 0xe0, 0x23, 0xfb, 0xc2, 0xf0, 0xf8, 0x02, 0xce, 0x1a, 0xe7,
  0xec, 0x24, 0x08, 0xd6, 0x03, 0xfa, 0xda, 0xeb, 0x3a, 0xce, 0xfe, 0x08,
  0xce, 0x0e, 0xcf, 0xf1, 0xee, 0xf8, 0x05, 0xfe, 0xda, 0x07, 0x11, 0x28,
  0xc3, 0x07, 0xfe, 0x29, 0x0e, 0x14, 0xc4, 0x1e, 0xf4, 0xe6, 0xdb, 0xe2,
  0x0a, 0xf5, 0xfd, 0xe3, 0xf5, 0xfd, 0x22, 0xc2, 0xfe, 0x30, 0x00, 0x2a,
  0x3f, 0x10, 0xfb, 0x0b, 0xe2, 0x16, 0x1c, 0xf7, 0x0b, 0xf8, 0xe4, 0x01,
  0xf4, 0xfc, 0x01, 0xce, 0x12, 0x06, 0xd4, 0x11, 0xf7, 0xff, 0x02, 0x0b,
  0x2a, 0xf3, 0x13, 0xda, 0x02, 0xe7, 0x08, 0x04, 0xe0, 0x09, 0xf3, 0x11,
  0x0b, 0x15, 0x20, 0x13, 0xd4, 0x0a, 0x02, 0xe4, 0x1c, 0x12, 0xda, 0x26,
  0x24, 0xf0, 0xca, 0xf3, 0x1c, 0x1c, 0xe3, 0xf5, 0xec, 0xcf, 0xfa, 0xf3,
  0xf5, 0x33, 0xfc, 0x07, 0xec, 0x3e, 0xe0, 0xd5, 0x05, 0x10, 0x1d, 0xe9,
  0xdb, 0xfa, 0xc8, 0xf7, 0x0d, 0xcc, 0x1d, 0xc5, 0x12, 0x04, 0x05, 0x09,
  0x29, 0xdf, 0x14, 0xf9, 0xd4, 0x12, 0xe9, 0x10, 0xf2, 0x01, 0xce, 0xd9,
  0xe8, 0xf2, 0x03, 0xfa, 0xff, 0xc3, 0x14, 0xda, 0x10, 0x24, 0xf3, 0x15,
  0x2f, 0x06, 0xfc, 0xf2, 0xef, 0x2f, 0x2e, 0xf2, 0x0d, 0x0d, 0x12, 0xce,
  0xf9, 0x04, 0xf8, 0xf5, 0xd7, 0x23, 0x08, 0xfe, 0xc2, 0xee, 0xce, 0xf7,
  0x08, 0xf1, 0x17, 0xf8, 0xd6, 0x16, 0xfd, 0x01, 0x1a, 0xde, 0x0d, 0xfa,
  0x10, 0x1a, 0x0c, 0x23, 0x17, 0x0e, 0xe3, 0xfb, 0xf3, 0xec, 0xef, 0xfa,
  0x18, 0xd3, 0xfc, 0x23, 0xf7, 0x12, 0xde, 0xf8, 0xd8, 0xfb, 0x21, 0xe7,
  0x15, 0xfe, 0xe4, 0x14, 0x1d, 0x12, 0xef, 0xc2, 0x3d, 0x3a, 0x0e, 0x28,
  0x0a, 0xdd, 0x17, 0xf3, 0xf4, 0x14, 0xf4, 0x03, 0x2d, 0xf8, 0xce, 0xce,
  0x1b, 0x2e, 0xf2, 0x14, 0xd9, 0xfd, 0x23, 0xf8, 0xc6, 0x00, 0xe7, 0xfd,
  0xdb, 0x05, 0x12, 0xe6, 0x05, 0xdf, 0x1c, 0x05, 0x17, 0xf8, 0x0a, 0x04,
  0xed, 0xed, 0x19, 0x09, 0x0b, 0x24, 0x18, 0x13, 0x03, 0x2a, 0x1a, 0xff,
  0xe6, 0x26, 0x02, 0xd1, 0x15, 0xcd, 0x11, 0xe8, 0x06, 0x33, 0x19, 0xfe,
  0xd9, 0xde, 0xfa, 0xfb, 0x21, 0x05, 0x20, 0x3a, 0xd7, 0x18, 0xf5, 0x05,
  0x39, 0xfa, 0x2d, 0xf8, 0x32, 0xf3, 0x24, 0xdd, 0xf5, 0xde, 0x07, 0x0a,
  0xcd, 0xea, 0x1b, 0x20, 0xf0, 0x28, 0x06, 0xe3, 0x05, 0xf7, 0x2c, 0x0f,
  0x26, 0xf2, 0xf3, 0x12, 0x1c, 0x1f, 0xc0, 0xea, 0x02, 0x1d, 0xe9, 0xde,
  0x10, 0xfc, 0xf2, 0x20, 0x12, 0x00, 0xf0, 0xdf, 0x24, 0xeb, 0x32, 0x2c,
  0x08, 0x00, 0xfa, 0xcf, 0xf2, 0xdc, 0xe0, 0xeb, 0xe6, 0xfd, 0xf5, 0xec,
  0x14, 0x02, 0xe8, 0xef, 0xf4, 0x0c, 0x2d, 0x02, 0x28, 0xff, 0xf2, 0x0d,
  0x0e, 0xf0, 0x0d, 0x0c, 0xdc, 0xdf, 0xda, 0xfb, 0x07, 0xd6, 0x17, 0xf4,
  0x37, 0x1a, 0x24, 0x00, 0x0f, 0xec, 0xff, 0xd0, 0xfc, 0x0f, 0x05, 0xe7,
  0xf3, 0xd8, 0xda, 0x31, 0xbf, 0x19, 0xec, 0xdc, 0xcf, 0xed, 0xe7, 0x06,
  0xff, 0x20, 0x2d, 0x18, 0x14, 0x34, 0x16, 0xc8, 0xfe, 0x19, 0x13, 0xda,
  0xeb, 0x19, 0xfd, 0xed, 0xf7, 0x18, 0x0e, 0xe3, 0xfc, 0x31, 0xf0, 0xc6,
  0xc5, 0x18, 0xe3, 0xef, 0x1d, 0xf9, 0x0f, 0xc7, 0x05, 0x2b, 0xd4, 0x0f,
  0x17, 0x16, 0xfa, 0x28, 0x3d, 0xd0, 0xdc, 0x1d, 0x17, 0x08, 0x39, 0xdf,
  0x2a, 0xe5, 0xdd, 0xfc, 0x30, 0x1b, 0xec, 0xfd, 0x10, 0xec, 0xe5, 0x15,
  0xf4, 0xf3, 0xf2, 0xd0, 0x0b, 0xd3, 0x17, 0xe5, 0x20, 0xf3, 0xe9, 0xee,
  0x0a, 0x03, 0x34, 0x28, 0x26, 0xbf, 0x06, 0x37, 0x05, 0xdf, 0x0f, 0x07,
  0xcf, 0xea, 0xff, 0x1c, 0xf9, 0x1f, 0xef, 0xe4, 0xef, 0x1f, 0xf0, 0x0d,
  0xd0, 0xe4, 0xe1, 0xff, 0x06, 0xfb, 0xf6, 0x03, 0xdc, 0x01, 0x0e, 0x14,
  0xfe, 0xf9, 0x13, 0x0c, 0x06, 0x0b, 0xe3, 0xfc, 0xcf, 0x28, 0x0c, 0x35,
  0x15, 0xf0, 0x1b, 0x22, 0xe1, 0xd7, 0xff, 0xff, 0xd3, 0x3d, 0xee, 0xe2,
  0x09, 0xea, 0x3d, 0xd5, 0xd5, 0xf1, 0x2b, 0x02, 0x35, 0x12, 0xdd, 0x08,
  0x13, 0xd6, 0x0c, 0xe2, 0x21, 0x1a, 0xda, 0x06, 0x10, 0x35, 0xfd, 0xf9,
  0x15, 0x0a, 0x27, 0xcd, 0x08, 0xf7, 0x20, 0xdb, 0xdf, 0xd9, 0xbf, 0xdf,
  0x15, 0x1e, 0x0a, 0x15, 0x01, 0xfe, 0x03, 0x15, 0xfb, 0xeb, 0x3e, 0x0a,
  0xd6, 0xe4, 0xf2, 0x30, 0xf7, 0xee, 0xde, 0xca, 0x1b, 0x30, 0x06, 0x09,
  0x01, 0x13, 0x02, 0xf2, 0x01, 0xff, 0x0c, 0xd7, 0x19, 0x1b, 0xd1, 0xf9,
  0x0f, 0xf4, 0x1a, 0x02, 0x15, 0xfd, 0x05, 0xea, 0x3c, 0xfa, 0xeb, 0x17,
  0xef, 0x03, 0xf7, 0x04, 0x09, 0x1d, 0xf1, 0xed, 0xdd, 0xfd, 0xce, 0xe4,
  0x01, 0xee, 0x16, 0x09, 0x36, 0x30, 0x1c, 0xe4, 0x10, 0x07, 0xe8, 0xf2,
  0x09, 0xfb, 0xdf, 0xf9, 0x0a, 0xf2, 0xf4, 0xec, 0xe4, 0xdf, 0xe1, 0x17,
  0x0e, 0xf8, 0x31, 0xfe, 0xf6, 0x2d, 0x22, 0xf6, 0xfa, 0xc5, 0x0e, 0x1d,
  0xe0, 0x18, 0xf4, 0x23, 0x1d, 0xe7, 0x18, 0x1a, 0x09, 0xe3, 0xe5, 0x26,
  0x0b, 0xeb, 0x1b, 0x05, 0x27, 0xff, 0xdc, 0x13, 0xdf, 0xfe, 0x1d, 0x20,
  0x1f, 0x21, 0xfd, 0xef, 0x08, 0xf6, 0xe7, 0x3c, 0x1a, 0x02, 0x07, 0xda,
  0xec, 0x05, 0x2d, 0x1a, 0x06, 0xfe, 0xf3, 0xfe, 0x1b, 0x13, 0xf7, 0x0a,
  0x17, 0x24, 0x02, 0x29, 0x04, 0xec, 0xd2, 0x2c, 0x21, 0x1b, 0xcb, 0x12,
  0x2b, 0x0a, 0x00, 0xeb, 0x06, 0x1f, 0x3a, 0x17, 0x01, 0x00, 0xfd, 0x2a,
  0x11, 0xff, 0x02, 0x33, 0x33, 0x0c, 0x18, 0xe0, 0x0a, 0xd5, 0xdf, 0x2b,
  0x12, 0x12, 0x09, 0x02, 0xf1, 0x27, 0xfc, 0x09, 0x29, 0xf6, 0x08, 0xfc,
  0x1e, 0xde, 0x14, 0xfb, 0xf3, 0x0d, 0x16, 0x1d, 0x05, 0x1b, 0xcc, 0xff,
  0xee, 0xfc, 0x08, 0xfa, 0x0c, 0xe5, 0xfe, 0xff, 0x0d, 0x08, 0x27, 0x21,
  0x2b, 0xe1, 0xd7, 0xdc, 0x16, 0x02, 0xed, 0xf2, 0x19, 0x09, 0xfc, 0xd7,
  0x13, 0x33, 0xf3, 0xe7, 0x3b, 0x18, 0x27, 0xd7, 0x26, 0x30, 0xdd, 0x24,
  0x0b, 0x0c, 0x17, 0xd2, 0x13, 0x2e, 0x17, 0x33, 0x15, 0x00, 0x16, 0xdc,
  0x35, 0xfe, 0x2d, 0x0a, 0xc4, 0x20, 0xfd, 0x10, 0x1d, 0x16, 0x2c, 0x16,
  0x1f, 0xe1, 0xf8, 0x13, 0x0e, 0x1e, 0x25, 0x1a, 0x2a, 0x0e, 0x01, 0x02,
  0x13, 0x0f, 0xdc, 0x15, 0xef, 0x1a, 0x31, 0x00, 0x32, 0xcf, 0x03, 0x00,
  0xef, 0x06, 0x1a, 0xca, 0xe9, 0x08, 0xf5, 0x1a, 0x26, 0x0e, 0xd8, 0x10,
  0x06, 0xf1, 0x0d, 0x05, 0x27, 0x22, 0x31, 0xe0, 0x1d, 0x05, 0xfd, 0x16,
  0xff, 0xfe, 0xf3, 0xfa, 0xe1, 0x14, 0xe6, 0x13, 0x1b, 0xf6, 0x1a, 0xfe,
  0xdf, 0xff, 0x13, 0x27, 0x26, 0xf9, 0x10, 0xf2, 0x08, 0x40, 0x2d, 0x2c,
  0xf5, 0x0b, 0xd8, 0x22, 0x06, 0x34, 0xf3, 0x04, 0xf0, 0xcb, 0xdc, 0xea,
  0x10, 0x15, 0x15, 0xf0, 0x08, 0x0a, 0x1e, 0x1c, 0x16, 0xf0, 0x1f, 0x42,
  0xf5, 0xd1, 0xf3, 0x06, 0x20, 0x17, 0x23, 0x07, 0x0f, 0xe0, 0x27, 0x15,
  0x19, 0xd3, 0xbf, 0x1a, 0x13, 0xf8, 0xdd, 0x15, 0xf2, 0x16, 0x0a, 0x32,
  0x2f, 0x18, 0xfa, 0xf0, 0x18, 0xdf, 0x04, 0xfd, 0x08, 0x12, 0x2a, 0xdb,
  0x21, 0xea, 0x23, 0x1d, 0x13, 0x25, 0xda, 0x1d, 0xe1, 0xe4, 0xe7, 0x20,
  0xf4, 0x1a, 0xf5, 0xee, 0x15, 0x27, 0xe7, 0x13, 0x1b, 0x19, 0xe1, 0x23,
  0xfe, 0xfb, 0xdf, 0xe9, 0x0b, 0xff, 0xfb, 0x25, 0x03, 0x2f, 0x0b, 0x1a,
  0xfd, 0x0c, 0xfc, 0xdc, 0x0e, 0x27, 0x06, 0x09, 0x03, 0x06, 0x04, 0x0a,
  0x11, 0xde, 0x0a, 0x02, 0x11, 0x36, 0xef, 0xf6, 0xd9, 0xf9, 0x21, 0x29,
  0x04, 0xf5, 0x3c, 0x1a, 0xff, 0x08, 0x33, 0x02, 0xcc, 0xc3, 0xe0, 0xbf,
  0xd9, 0x42, 0xf1, 0x03, 0xfe, 0x28, 0xff, 0x19, 0xeb, 0x2a, 0x1a, 0xf1,
  0x17, 0xfc, 0xea, 0x04, 0x1f, 0x1c, 0x16, 0x0d, 0x03, 0xfe, 0x0e, 0xe5,
  0xe8, 0xe9, 0xe2, 0x1a, 0x0c, 0xef, 0xf7, 0x09, 0xf4, 0x38, 0xf6, 0xd7,
  0x14, 0xf9, 0xf2, 0x18, 0x1f, 0x04, 0xf8, 0x21, 0x1a, 0x21, 0xf4, 0xee,
  0xd7, 0xe7, 0x09, 0xf5, 0x10, 0x22, 0x0c, 0xfa, 0x2c, 0x0f, 0x1b, 0x3b,
  0x06, 0x16, 0x31, 0xd3, 0xea, 0xf0, 0x15, 0xfc, 0x14, 0xe6, 0x0a, 0x00,
  0x29, 0x10, 0x07, 0x23, 0xf1, 0x1b, 0xf0, 0x0e, 0xe1, 0x0f, 0x07, 0x28,
  0x23, 0x0c, 0xf1, 0xf7, 0xd8, 0x09, 0x0c, 0x0c, 0x06, 0xf7, 0x0a, 0x2f,
  0x15, 0x40, 0xed, 0x0c, 0x1c, 0x1f, 0xc8, 0xfa, 0x0c, 0x31, 0x06, 0x18,
  0xd8, 0x14, 0x13, 0x25, 0xfb, 0x36, 0xc5, 0x21, 0xfa, 0xf0, 0xf5, 0xe8,
  0xe8, 0xc6, 0xd0, 0x32, 0xe7, 0xc1, 0xf9, 0xf5, 0x1e, 0x1b, 0x03, 0x08,
  0x00, 0xef, 0xec, 0x08, 0xeb, 0xc8, 0xfc, 0x22, 0x0a, 0x21, 0x12, 0xcf,
  0xf7, 0x0e, 0xdc, 0x0c, 0xd7, 0xf4, 0xc7, 0xfa, 0x0f, 0x2a, 0xf6, 0x35,
  0x02, 0x13, 0x07, 0xd4, 0x20, 0xd2, 0x36, 0xd6, 0x0c, 0xb0, 0xdd, 0xc9,
  0xf8, 0x25, 0xfd, 0x0d, 0x1b, 0x1d, 0xdc, 0x03, 0xce, 0x0e, 0xfd, 0xf4,
  0x1a, 0xc5, 0xf3, 0xd7, 0xf7, 0xfd, 0x10, 0x23, 0x0d, 0xf0, 0xed, 0xdf,
  0xf8, 0xe9, 0xd0, 0x2e, 0x1c, 0xfe, 0xce, 0xc6, 0x0a, 0xf4, 0xc3, 0xfc,
  0x02, 0x21, 0x20, 0x0a, 0x07, 0x11, 0x02, 0xf8, 0xd0, 0xda, 0x15, 0x2b,
  0xe6, 0x34, 0x11, 0x0e, 0xfa, 0x19, 0x11, 0x08, 0xe1, 0x1a, 0x16, 0x0f,
  0xe9, 0xe6, 0xec, 0x1a, 0x0c, 0xca, 0x3e, 0x19, 0xec, 0x02, 0xe6, 0xed,
  0xde, 0xfe, 0xf9, 0x0e, 0x3c, 0x03, 0x32, 0x27, 0xfd, 0xcc, 0x1c, 0x2a,
  0x17, 0xec, 0x28, 0x37, 0xfd, 0x30, 0x0f, 0x32, 0x08, 0x09, 0xfe, 0xe3,
  0xf8, 0x11, 0x0d, 0x2a, 0x24, 0xf7, 0xdd, 0xc4, 0xda, 0xec, 0x30, 0x0d,
  0xd3, 0x21, 0x15, 0xe6, 0xeb, 0xcb, 0xf3, 0x1f, 0xf0, 0x0b, 0xea, 0xef,
  0x14, 0xe3, 0x23, 0x3b, 0xc9, 0xd4, 0xf4, 0xf0, 0x05, 0xe3, 0xde, 0x06,
  0xec, 0xfa, 0x08, 0xd0, 0xd0, 0xd6, 0xe1, 0x11, 0xfd, 0x39, 0xf1, 0xf9,
  0xf0, 0x01, 0x04, 0x1d, 0xdd, 0xdf, 0xf3, 0xe4, 0x11, 0xef, 0xd9, 0x0e,
  0xf2, 0xff, 0xe0, 0x31, 0x02, 0x13, 0xf7, 0xfc, 0x3f, 0x04, 0x12, 0xdd,
  0x2c, 0x03, 0xf4, 0x09, 0x3a, 0xe3, 0x0b, 0xf9, 0x12, 0x0f, 0xdc, 0xe8,
  0xf5, 0xfa, 0xdd, 0x10, 0x0d, 0xeb, 0x16, 0xf0, 0x1c, 0x0f, 0x22, 0xcb,
  0xdd, 0x40, 0xe4, 0x3b, 0xd0, 0xda, 0x1e, 0x11, 0x08, 0xee, 0x08, 0x24,
  0xf2, 0xe3, 0xc0, 0xff, 0x1a, 0xdc, 0xce, 0x44, 0x15, 0x12, 0xed, 0xcf,
  0x1f, 0xe5, 0x0e, 0x19, 0xe4, 0x0c, 0xd0, 0x08, 0x0b, 0xf4, 0x26, 0xe7,
  0xe4, 0x0c, 0xff, 0x13, 0xfd, 0xff, 0x08, 0xf6, 0x2f, 0xd0, 0x27, 0x04,
  0x10, 0xc1, 0xf7, 0x16, 0x26, 0x00, 0xf3, 0x1d, 0x32, 0x1e, 0xfc, 0x26,
  0xc5, 0x08, 0x30, 0x2c, 0x43, 0x06, 0x16, 0x0b, 0xc6, 0x1c, 0xf7, 0xdf,
  0x0e, 0x05, 0xf1, 0x04, 0xd4, 0xdf, 0x0d, 0x3a, 0xf1, 0xbb, 0x00, 0x1b,
  0x0c, 0x30, 0x10, 0xf4, 0x16, 0xe3, 0xf9, 0x2f, 0xc5, 0xdb, 0xd7, 0xf1,
  0x0b, 0xb7, 0xfa, 0x36, 0xef, 0x0a, 0x2a, 0xce, 0x16, 0xb9, 0xe1, 0x0d,
  0x17, 0x17, 0x0b, 0xf8, 0x1a, 0xd8, 0xe4, 0x2b, 0x06, 0xf1, 0xfb, 0xda,
  0x02, 0x00, 0xd0, 0x07, 0xed, 0xf9, 0xf8, 0xe8, 0x0e, 0xea, 0xf8, 0xe4,
  0x24, 0x0f, 0x20, 0x14, 0xe5, 0x34, 0x06, 0xfa, 0x06, 0x0e, 0x1c, 0x01,
  0xf1, 0x08, 0x0d, 0xf2, 0x21, 0xc9, 0xec, 0x02, 0x14, 0x02, 0xf9, 0x0f,
  0x1a, 0xf8, 0x1f, 0xf2, 0x1c, 0x0a, 0xce, 0x1c, 0xf5, 0x2e, 0x14, 0xe5,
  0xda, 0xfe, 0x21, 0x36, 0xe2, 0x0c, 0x3e, 0xc7, 0x21, 0xdc, 0xec, 0x26,
  0xfe, 0x1f, 0xfe, 0xcd, 0x0f, 0xe3, 0x01, 0x16, 0x03, 0xf2, 0xe4, 0xee,
  0xee, 0xd2, 0xde, 0xf1, 0x29, 0x25, 0x21, 0xe2, 0xed, 0xfe, 0x13, 0xef,
  0x05, 0x14, 0x05, 0xd7, 0x2f, 0x37, 0xf4, 0x0c, 0x08, 0xd0, 0x14, 0xf5,
  0x10, 0xeb, 0xfc, 0x18, 0xea, 0x07, 0x31, 0xfc, 0x0d, 0x07, 0x44, 0xf6,
  0x1a, 0x19, 0x2c, 0xdf, 0xd9, 0xe5, 0x04, 0x11, 0xb4, 0xf2, 0x17, 0xd7,
  0x1d, 0xfe, 0xf2, 0xf6, 0x31, 0xdc, 0x08, 0x2e, 0x17, 0xd1, 0xff, 0x42,
  0xdb, 0xdb, 0x01, 0xe4, 0xf0, 0xe3, 0x03, 0xf4, 0x00, 0x02, 0x2d, 0xd1,
  0xd5, 0xda, 0xd8, 0x3b, 0xee, 0xf6, 0x35, 0xcc, 0x0d, 0xb2, 0xe3, 0x16,
  0x08, 0xaf, 0xf4, 0xd0, 0xdd, 0xe6, 0x14, 0x04, 0x20, 0xef, 0x0a, 0xfe,
  0xc4, 0xc9, 0xec, 0x05, 0x36, 0xce, 0xea, 0xcc, 0x18, 0xf8, 0x1c, 0xf8,
  0x04, 0x07, 0x06, 0x19, 0x01, 0x11, 0xcd, 0xf9, 0x0b, 0xd9, 0x18, 0x2e,
  0x0c, 0x1b, 0xf2, 0x0e, 0x07, 0x1a, 0x14, 0xe4, 0x29, 0x10, 0xf5, 0x0d,
  0xf8, 0x03, 0xdc, 0x14, 0x18, 0xda, 0x19, 0xfd, 0xdd, 0xfb, 0x1d, 0xe3,
  0x10, 0xd5, 0x22, 0x29, 0x16, 0x36, 0xfb, 0x31, 0x02, 0x17, 0xef, 0x2e,
  0xfc, 0xf0, 0x26, 0x20, 0xf4, 0x19, 0xe4, 0x2b, 0x23, 0xec, 0xd8, 0xf8,
  0x29, 0xde, 0x2d, 0x05, 0x06, 0xe4, 0x2c, 0xe4, 0xfb, 0x06, 0x0e, 0x01,
  0x0b, 0xe7, 0xef, 0x26, 0x11, 0xfa, 0xf0, 0x1b, 0xe9, 0xfa, 0xf3, 0x05,
  0x07, 0x1e, 0x04, 0x0d, 0xf8, 0x02, 0xd2, 0x15, 0xf2, 0xf5, 0x24, 0x14,
  0xf0, 0xf5, 0xe7, 0x20, 0x38, 0xe6, 0x0a, 0x1c, 0x1f, 0x0b, 0xd8, 0x3a,
  0x2c, 0xeb, 0xe7, 0x27, 0xd6, 0x30, 0x07, 0x06, 0xd0, 0xea, 0xeb, 0xfb,
  0xd6, 0x0f, 0x2e, 0x2a, 0xe1, 0xb9, 0xe8, 0x22, 0x21, 0x07, 0xfd, 0x0a,
  0xe8, 0xe5, 0x18, 0x17, 0xf3, 0xd5, 0x39, 0xfb, 0xe8, 0xed, 0x04, 0x1d,
  0x11, 0xf4, 0xed, 0xf8, 0x1f, 0xfc, 0x0f, 0x06, 0x14, 0xed, 0xec, 0xe6,
  0xd0, 0xd3, 0xe7, 0xfd, 0x13, 0x09, 0xd5, 0xbc, 0x21, 0x09, 0xdc, 0x27,
  0x16, 0xeb, 0x22, 0x08, 0xe6, 0xd6, 0xcf, 0xef, 0x0d, 0x01, 0x02, 0x06,
  0x1f, 0x1a, 0x24, 0x2d, 0xde, 0x1e, 0x12, 0xf2, 0x22, 0x11, 0x00, 0x21,
  0xb8, 0x30, 0xfb, 0x01, 0x24, 0x0e, 0xff, 0x11, 0xe7, 0xeb, 0xf0, 0x11,
  0xf3, 0xef, 0xd5, 0xf7, 0x1c, 0xed, 0xc7, 0xcf, 0xe7, 0xd3, 0x10, 0xdf,
  0xd2, 0x34, 0xda, 0xfd, 0xdf, 0x18, 0xfe, 0xcf, 0x08, 0xe0, 0x1f, 0x3f,
  0xf0, 0x02, 0xf4, 0xf4, 0xf9, 0x32, 0x18, 0xf3, 0x18, 0xc3, 0x31, 0x04,
  0xdc, 0x18, 0x0a, 0xdf, 0xee, 0xf2, 0x09, 0x0b, 0xfa, 0x11, 0xf2, 0x28,
  0xdc, 0xf7, 0x19, 0x22, 0x0b, 0xd5, 0xe7, 0xc9, 0xe2, 0xd1, 0xfa, 0x18,
  0xfc, 0xde, 0xfb, 0xe9, 0x24, 0xc3, 0xf8, 0x19, 0xd3, 0x01, 0xf7, 0x2b,
  0x08, 0xea, 0xc5, 0x02, 0xf3, 0xf3, 0xef, 0x2e, 0xc5, 0xc3, 0x03, 0x06,
  0x20, 0x01, 0xd2, 0xfa, 0x06, 0xe2, 0x01, 0xf1, 0x0d, 0xd3, 0xfa, 0xe9,
  0xfb, 0xe6, 0x00, 0x06, 0xff, 0xeb, 0xe7, 0xff, 0x36, 0xdf, 0xdf, 0x22,
  0x1b, 0xde, 0x1f, 0xff, 0x01, 0xf4, 0x1e, 0x09, 0x2c, 0x1b, 0xcf, 0xf2,
  0xda, 0x06, 0x25, 0x09, 0x04, 0xe2, 0x1d, 0x08, 0x18, 0x0c, 0xc3, 0x14,
  0x3d, 0x1e, 0x29, 0xe1, 0xc5, 0x0d, 0x33, 0x0b, 0xe3, 0x1a, 0xf0, 0xc2,
  0x25, 0x19, 0x14, 0x22, 0xc9, 0xd7, 0xe3, 0x08, 0x27, 0x03, 0x03, 0x1a,
  0x19, 0x20, 0xee, 0x01, 0x0d, 0x06, 0x06, 0x09, 0x01, 0x29, 0x04, 0xf9,
  0xe6, 0x12, 0xe0, 0xf4, 0xe4, 0x21, 0xd7, 0x0f, 0x29, 0x26, 0xf2, 0xdf,
  0x10, 0x08, 0xc8, 0x2d, 0xd6, 0xe2, 0x19, 0xe4, 0xff, 0xde, 0x20, 0x11,
  0x30, 0x13, 0xe9, 0xfa, 0x28, 0x16, 0x00, 0xe2, 0x1f, 0xe6, 0x1c, 0x1a,
  0xb7, 0x06, 0x16, 0xd5, 0xd9, 0xde, 0x17, 0xfd, 0xd6, 0x38, 0xe4, 0x0a,
  0x16, 0x05, 0xef, 0xfd, 0xe2, 0x08, 0xcf, 0x0c, 0xf8, 0xf5, 0xec, 0x28,
  0xaf, 0xc1, 0xd5, 0xfd, 0x02, 0xf1, 0xd9, 0x02, 0xea, 0x06, 0xf1, 0x10,
  0x0b, 0xab, 0x06, 0xf6, 0xdf, 0xc6, 0x04, 0xc5, 0x23, 0x11, 0x0f, 0x13,
  0xfc, 0xc6, 0x3f, 0x31, 0x0b, 0xe0, 0x04, 0x09, 0x2a, 0xc2, 0xe4, 0xf2,
  0x0b, 0xee, 0x06, 0x03, 0x1f, 0xf9, 0xd2, 0xe5, 0xc6, 0xf6, 0xfa, 0x05,
  0x20, 0xfa, 0xfa, 0xe7, 0xd1, 0x13, 0xc4, 0x07, 0x45, 0xfa, 0xfc, 0x12,
  0xe4, 0x13, 0x10, 0xfd, 0x1b, 0x0a, 0xf2, 0x01, 0x36, 0x0b, 0x32, 0x10,
  0xeb, 0x0b, 0xce, 0xe7, 0xde, 0xfe, 0x17, 0x3d, 0x13, 0x0f, 0xfc, 0xf1,
  0x0b, 0x19, 0xf4, 0x0c, 0x08, 0x0f, 0x06, 0x0e, 0x1c, 0xf6, 0x0b, 0xf3,
  0xd6, 0xfb, 0xf8, 0xf4, 0xfc, 0xd5, 0x03, 0x05, 0xf0, 0xfb, 0xf8, 0xf3,
  0xfd, 0x04, 0x3b, 0xcc, 0x18, 0xf1, 0xcd, 0x07, 0xfc, 0xca, 0x09, 0xf3,
  0x25, 0x0f, 0x03, 0xe7, 0x0e, 0x3a, 0x2e, 0x04, 0x15, 0xe3, 0xf7, 0x08,
  0xfb, 0x22, 0x3c, 0x1e, 0xd3, 0x25, 0xf3, 0x1a, 0xef, 0xc5, 0xda, 0x1d,
  0xe0, 0xcd, 0x21, 0x19, 0x3e, 0xd0, 0xc3, 0xe5, 0xf4, 0xdf, 0xf2, 0xf6,
  0xed, 0xe0, 0x32, 0x22, 0xdb, 0x0f, 0x06, 0xfc, 0xfd, 0xa4, 0xf3, 0x18,
  0xf8, 0x16, 0xc2, 0x16, 0xce, 0xfa, 0xf5, 0xd0, 0xdd, 0x04, 0x1f, 0xbe,
  0xc7, 0xbd, 0xf2, 0x1b, 0xd5, 0xb5, 0x17, 0xfc, 0x23, 0xc4, 0xcc, 0xef,
  0x1b, 0xc4, 0x24, 0xff, 0x3f, 0x05, 0x07, 0xfb, 0x34, 0xe4, 0xe1, 0x23,
  0xc8, 0x18, 0xd3, 0x13, 0x4d, 0x12, 0x17, 0x34, 0x19, 0xfb, 0xf6, 0x0b,
  0x1a, 0x14, 0x05, 0xed, 0xe3, 0x0f, 0xc8, 0x07, 0x3d, 0xce, 0x0a, 0xd8,
  0x16, 0x01, 0x27, 0x27, 0xb6, 0xea, 0x2a, 0x28, 0xef, 0x06, 0xd8, 0x1e,
  0xcf, 0xfc, 0x38, 0xe9, 0xd2, 0xf1, 0xd5, 0x1d, 0x31, 0xf9, 0x3e, 0xe9,
  0x1f, 0x0b, 0xf6, 0xfa, 0xe8, 0x31, 0xf6, 0xfa, 0x16, 0xfe, 0x1e, 0xf7,
  0xe8, 0x16, 0x08, 0x2b, 0xef, 0x2c, 0xfa, 0x0d, 0x40, 0xdc, 0x1d, 0x02,
  0xed, 0xbf, 0x13, 0xdf, 0x0f, 0x11, 0x15, 0xf5, 0xca, 0x0f, 0x13, 0x20,
  0x10, 0xf7, 0x1c, 0x00, 0x01, 0x24, 0x28, 0x17, 0xe8, 0x1e, 0xdc, 0xcd,
  0xf5, 0xd1, 0xde, 0xf1, 0xbe, 0xf3, 0x06, 0x00, 0xd4, 0xe4, 0xd2, 0xff,
  0x06, 0xf0, 0x10, 0xf0, 0x23, 0xaa, 0xcf, 0x2d, 0xaa, 0xed, 0xf4, 0x07,
  0x14, 0xbe, 0xe9, 0x0f, 0x17, 0x03, 0x0b, 0x04, 0xfd, 0xda, 0xc7, 0xfb,
  0x1e, 0xe7, 0x02, 0xc8, 0x14, 0xf5, 0xc5, 0x06, 0x08, 0xca, 0xfa, 0xd6,
  0xcc, 0xe7, 0xfd, 0xee, 0x0f, 0xce, 0x00, 0xd1, 0xc6, 0xdd, 0x17, 0x1a,
  0x40, 0x14, 0x11, 0xe6, 0xfa, 0xf8, 0xe9, 0x08, 0x0f, 0xed, 0x11, 0xcf,
  0xd3, 0xed, 0xd6, 0xee, 0x32, 0x1f, 0xe8, 0xfb, 0x2b, 0x1b, 0x2c, 0x1d,
  0xfc, 0xd0, 0x1f, 0x23, 0x03, 0x08, 0xfc, 0x2e, 0xb6, 0xd0, 0xde, 0xec,
  0xf7, 0x1a, 0xfa, 0x3a, 0xc0, 0x5a, 0x00, 0x37, 0x1e, 0x10, 0x22, 0x2e,
  0xfb, 0x04, 0x02, 0xf0, 0xcc, 0x17, 0xf7, 0x13, 0x02, 0x0d, 0x1e, 0x1e,
  0xfc, 0xfb, 0xda, 0xfe, 0x0a, 0x0d, 0x42, 0xf8, 0x1c, 0xe8, 0x39, 0xc9,
  0x0c, 0x01, 0xf9, 0xe7, 0x04, 0xea, 0x06, 0xef, 0x22, 0xd3, 0x06, 0x2c,
  0x13, 0xfa, 0x02, 0xfc, 0xe1, 0x1e, 0x32, 0xfe, 0x10, 0xfd, 0xd6, 0x12,
  0xca, 0x46, 0xe8, 0x07, 0xfe, 0xdc, 0x2a, 0x0c, 0xce, 0xef, 0x18, 0x05,
  0xd4, 0xc9, 0xdb, 0x21, 0x07, 0xf1, 0x02, 0xfc, 0x03, 0xe6, 0x0c, 0x14,
  0xf2, 0x2a, 0x13, 0xcf, 0x19, 0xbb, 0xd4, 0x08, 0xf4, 0x1f, 0xca, 0xee,
  0xe5, 0xd9, 0xe3, 0x23, 0x18, 0xc9, 0x13, 0xf7, 0xfe, 0xe0, 0xb7, 0x06,
  0xf2, 0xce, 0xe6, 0x0f, 0xd2, 0x05, 0xfb, 0xf7, 0x19, 0xe2, 0x07, 0xf7,
  0xf0, 0xc6, 0xcc, 0x34, 0x11, 0xe4, 0xe3, 0xbd, 0x12, 0xfe, 0x00, 0x0f,
  0x47, 0xdc, 0xc8, 0x14, 0xfb, 0x10, 0x0f, 0xfb, 0x48, 0xd6, 0x1e, 0xe3,
  0xd8, 0x35, 0x14, 0xed, 0x2c, 0xdc, 0xe5, 0xf1, 0xc3, 0x14, 0x10, 0x27,
  0xf2, 0xff, 0x1a, 0x08, 0x21, 0x02, 0x0c, 0x3a, 0xd0, 0x22, 0xf3, 0xe3,
  0xf3, 0x15, 0x1f, 0x0d, 0x28, 0xf4, 0xde, 0x17, 0x07, 0xfb, 0xdd, 0x26,
  0x15, 0xf6, 0xd2, 0xe8, 0xd1, 0x22, 0xf1, 0xf3, 0x07, 0xd2, 0x35, 0xf8,
  0x0c, 0xe5, 0xf7, 0x12, 0xf5, 0x23, 0xe6, 0x0e, 0xcf, 0xf8, 0x06, 0xf9,
  0x30, 0x11, 0x07, 0xe6, 0xf5, 0x2a, 0x26, 0xf3, 0xf7, 0x21, 0x19, 0x13,
  0x25, 0x15, 0x11, 0x15, 0xb7, 0xed, 0xed, 0x30, 0xdc, 0xa8, 0xd9, 0x25,
  0xc0, 0xc7, 0x1e, 0xce, 0xfe, 0xd0, 0xd6, 0x39, 0xfa, 0x13, 0xf7, 0xef,
  0xe5, 0xc2, 0xf9, 0x13, 0xca, 0x15, 0xbd, 0xc3, 0x0b, 0xc4, 0xd7, 0x11,
  0xec, 0x09, 0x06, 0x0b, 0xfb, 0xce, 0x9d, 0x18, 0x11, 0x20, 0x07, 0xf6,
  0x1d, 0xe3, 0xfe, 0x22, 0xbe, 0xcc, 0x02, 0xe2, 0xde, 0xf6, 0xcd, 0xf0,
  0xee, 0xaf, 0x22, 0xfd, 0x17, 0xe8, 0xd2, 0x23, 0x48, 0xea, 0xef, 0xdf,
  0xfb, 0xfb, 0xd9, 0x2c, 0x05, 0x00, 0x16, 0xf1, 0x07, 0x24, 0x12, 0xfa,
  0x41, 0xe8, 0x28, 0xf5, 0x13, 0x39, 0x35, 0x38, 0x55, 0x0b, 0xd7, 0x1a,
  0x21, 0x07, 0x19, 0x29, 0xb2, 0xc5, 0x0f, 0x09, 0x14, 0xf5, 0xf6, 0x36,
  0x05, 0x0e, 0xf5, 0x2e, 0x28, 0x26, 0xcb, 0x14, 0x42, 0xf2, 0xf8, 0x2b,
  0xec, 0x3a, 0xdd, 0x2a, 0xec, 0xe0, 0xd8, 0xeb, 0xdb, 0x25, 0x2f, 0x19,
  0xe3, 0xdf, 0x0d, 0x1a, 0x21, 0xe9, 0xf1, 0xea, 0x2e, 0xd2, 0x0f, 0x19,
  0xff, 0x0d, 0xf9, 0xde, 0x1c, 0xf5, 0x04, 0x10, 0xc7, 0x2b, 0xd2, 0x1d,
  0xdd, 0x01, 0xd2, 0x03, 0xdf, 0x25, 0x26, 0x3b, 0xb9, 0x3c, 0x0a, 0xf0,
  0x06, 0xca, 0xe4, 0x0f, 0xc1, 0x01, 0xf3, 0xc2, 0x04, 0xcc, 0xb4, 0xee,
  0xc4, 0xd6, 0x06, 0xf7, 0xe1, 0xe1, 0xf0, 0x2e, 0xda, 0x19, 0x17, 0xe2,
  0xf3, 0xbb, 0xc2, 0xf5, 0xcf, 0xf9, 0xe3, 0xfe, 0xc7, 0xa8, 0xe2, 0x06,
  0x25, 0x10, 0xe4, 0xd9, 0x27, 0xb5, 0xfd, 0x19, 0xd2, 0xa1, 0x26, 0xfd,
  0xe6, 0xfb, 0xe2, 0xeb, 0x0b, 0x0d, 0x05, 0xc2, 0xef, 0xf2, 0x24, 0x1e,
  0x51, 0xd6, 0x18, 0x0a, 0x1a, 0x09, 0xf7, 0x0d, 0xfe, 0xd2, 0xd5, 0xfe,
  0x07, 0xe7, 0x24, 0xdf, 0x6f, 0xdf, 0x2f, 0xe9, 0xda, 0x0b, 0x2d, 0xff,
  0x2f, 0xef, 0xfd, 0x32, 0xdf, 0x15, 0x38, 0x29, 0x12, 0xe7, 0x32, 0xea,
  0xf5, 0xfb, 0xea, 0x28, 0xbc, 0x57, 0xf3, 0x24, 0xdd, 0x10, 0x2c, 0x14,
  0x40, 0xe6, 0xd8, 0xf6, 0x24, 0xff, 0xe1, 0x00, 0x00, 0xfa, 0xf6, 0x05,
  0x11, 0x0b, 0x2e, 0x08, 0x0f, 0x02, 0xec, 0x21, 0x0b, 0xfe, 0x14, 0xe9,
  0x20, 0x06, 0xe5, 0x20, 0xd8, 0xe7, 0xe5, 0x20, 0x13, 0xe7, 0xf9, 0xf1,
  0x2a, 0x0e, 0xd5, 0x0f, 0x03, 0x24, 0xcc, 0x1b, 0x0c, 0x1f, 0xec, 0x34,
  0xc3, 0xf2, 0x09, 0xf0, 0xe5, 0xd7, 0xce, 0x3e, 0xbd, 0x08, 0xbd, 0x25,
  0x27, 0xc3, 0xaa, 0x2b, 0x21, 0xe9, 0x28, 0x0d, 0x1a, 0xd2, 0x25, 0x41,
  0x0d, 0xdc, 0xed, 0xed, 0x40, 0xb7, 0xcc, 0x33, 0xae, 0x06, 0xfb, 0xf8,
  0x10, 0xe0, 0xed, 0x01, 0x27, 0xfa, 0xf7, 0xfa, 0xbf, 0xa0, 0xb5, 0x18,
  0xc1, 0xef, 0x05, 0xba, 0x31, 0xc0, 0xd7, 0xeb, 0x09, 0xf8, 0x2b, 0xf6,
  0x2d, 0xea, 0xcf, 0x09, 0x08, 0xaf, 0x16, 0x0b, 0xe5, 0xef, 0xfe, 0xcf,
  0x46, 0xcd, 0x04, 0xf0, 0x1a, 0x01, 0xdf, 0xec, 0x38, 0x42, 0xc8, 0xf9,
  0x10, 0x24, 0x16, 0x17, 0x54, 0x08, 0x25, 0xfe, 0x17, 0x06, 0xf9, 0x25,
  0x1f, 0xcc, 0xfd, 0xf2, 0x17, 0x17, 0xef, 0x2a, 0xbc, 0x19, 0x30, 0xee,
  0xf1, 0x08, 0x35, 0x1d, 0x24, 0xe4, 0xdf, 0xec, 0x19, 0x17, 0xdd, 0x13,
  0x0c, 0xed, 0x13, 0xe6, 0xfe, 0x0a, 0x2b, 0xfc, 0xb9, 0x29, 0x18, 0x06,
  0x11, 0xe0, 0x42, 0xda, 0x22, 0xee, 0xe1, 0xe7, 0xf0, 0xf8, 0x08, 0xe4,
  0x25, 0x10, 0xf0, 0xfb, 0x32, 0xd0, 0x11, 0x01, 0xe6, 0x05, 0xcf, 0xe2,
  0x3d, 0xfe, 0xfa, 0x3e, 0x00, 0x07, 0xd2, 0x23, 0x14, 0xb0, 0x15, 0xfc,
  0xa5, 0xfb, 0xf1, 0x13, 0xe8, 0xb5, 0xc3, 0x11, 0xf2, 0xe1, 0xf9, 0x09,
  0xf7, 0xfc, 0xf9, 0x47, 0xd8, 0xbb, 0x13, 0xe7, 0xec, 0xa7, 0xb8, 0x1d,
  0xf9, 0xe4, 0xdf, 0xcf, 0x41, 0xa9, 0xec, 0x46, 0x1d, 0xd3, 0x05, 0x01,
  0x20, 0xe4, 0x24, 0xff, 0xfc, 0xf4, 0x01, 0xc4, 0xff, 0xa9, 0xe0, 0x09,
  0xf3, 0xc2, 0x1b, 0xe1, 0x19, 0xc6, 0xf9, 0xe0, 0x05, 0xb7, 0x14, 0x00,
  0xfb, 0xf5, 0xe7, 0x0c, 0x09, 0xd4, 0x23, 0xef, 0xd5, 0x01, 0x02, 0x10,
  0x21, 0x15, 0xde, 0xf9, 0x05, 0x15, 0x14, 0x2c, 0x20, 0x22, 0xf2, 0x0d,
  0x2e, 0x1f, 0x3a, 0x35, 0xea, 0x04, 0x20, 0x1e, 0xdd, 0x12, 0x14, 0x4a,
  0x05, 0x04, 0xed, 0xe8, 0xed, 0xfd, 0x18, 0x1a, 0x0d, 0xea, 0xce, 0xf7,
  0x22, 0xef, 0xed, 0x09, 0x2d, 0xd4, 0x00, 0xe4, 0xce, 0xf2, 0xeb, 0x04,
  0xe4, 0x00, 0x01, 0xf1, 0x1e, 0x0e, 0xcb, 0x16, 0x27, 0x08, 0x20, 0x1f,
  0xfa, 0xfd, 0xfe, 0xe5, 0x24, 0xd7, 0x2d, 0xe3, 0xe2, 0x20, 0x28, 0x00,
  0x00, 0x11, 0xdc, 0x03, 0xc9, 0x19, 0x09, 0x2e, 0x03, 0x31, 0x1b, 0x2f,
  0x1f, 0xc2, 0xf4, 0x21, 0xd3, 0xdb, 0x06, 0x0c, 0xf1, 0xa6, 0xa7, 0xef,
  0x06, 0xf6, 0x10, 0x0f, 0xf9, 0xca, 0x15, 0x33, 0x22, 0xe5, 0x32, 0x08,
  0x39, 0x98, 0xe7, 0x10, 0xfa, 0xe8, 0xf0, 0xf6, 0x28, 0xb1, 0xa0, 0x05,
  0x11, 0x1b, 0xed, 0x2c, 0xeb, 0x9b, 0xdd, 0x1c, 0x0e, 0xba, 0xd6, 0xff,
  0x06, 0xed, 0xd7, 0xe3, 0x11, 0xed, 0x0f, 0x05, 0x05, 0xc5, 0xdb, 0x07,
  0x2f, 0xe3, 0x0d, 0xe4, 0x19, 0x00, 0xef, 0x16, 0x60, 0x17, 0x14, 0x1d,
  0xed, 0xf6, 0x0e, 0x25, 0x34, 0xf2, 0x1a, 0x07, 0xf0, 0x23, 0xfe, 0xff,
  0x4f, 0x1e, 0xf5, 0xe6, 0xfa, 0x2c, 0x0d, 0x1b, 0x01, 0xc4, 0xeb, 0x2e,
  0x00, 0x21, 0x13, 0x3f, 0xd7, 0x1d, 0x17, 0x05, 0xf5, 0x14, 0xd0, 0xf0,
  0x10, 0xfd, 0xe4, 0xd0, 0xf2, 0x1a, 0x24, 0x29, 0xfc, 0xfe, 0xfb, 0x0d,
  0x27, 0x18, 0xff, 0x06, 0xfa, 0xf5, 0x2d, 0xef, 0x00, 0x01, 0x0b, 0x07,
  0x2a, 0x3f, 0xbe, 0x3a, 0xf2, 0x35, 0x2b, 0xed, 0x2c, 0x14, 0xff, 0xf8,
  0x39, 0x23, 0xf0, 0x4b, 0x03, 0x0c, 0x16, 0x21, 0x1f, 0x27, 0x05, 0x39,
  0xfd, 0x0e, 0xf2, 0x06, 0xed, 0xd3, 0x11, 0xed, 0xd8, 0xf0, 0xf3, 0x08,
  0x11, 0xc5, 0xf8, 0x11, 0xfb, 0xb6, 0xdc, 0xd5, 0x0b, 0xab, 0xfe, 0x2f,
  0xf6, 0x02, 0xfb, 0xe2, 0x02, 0x90, 0xe5, 0xde, 0xc8, 0x0f, 0xf8, 0xdb,
  0x1c, 0xc7, 0xd4, 0xf8, 0x14, 0xdb, 0x1f, 0xf3, 0xcf, 0xb8, 0xc4, 0xfd,
  0xef, 0xbf, 0xce, 0xdc, 0xe5, 0xb2, 0xdc, 0xcd, 0xfb, 0xab, 0x32, 0xea,
  0x2a, 0xc3, 0xff, 0xcb, 0x04, 0xdc, 0x02, 0xf3, 0x28, 0xbe, 0x27, 0xdf,
  0x4e, 0xfd, 0xd4, 0xf1, 0xf5, 0x06, 0xf0, 0x13, 0x20, 0x0b, 0x26, 0x17,
  0x06, 0x2f, 0xe0, 0x23, 0x58, 0x17, 0xf7, 0xf2, 0x2c, 0x0f, 0x13, 0x24,
  0xfc, 0xf7, 0xf9, 0xf3, 0xe3, 0x10, 0x0d, 0x0b, 0xd0, 0x10, 0x27, 0xcd,
  0xf0, 0xf8, 0xf9, 0xee, 0x3e, 0xb7, 0xcf, 0xfb, 0x03, 0x00, 0x04, 0xe9,
  0xf7, 0xf3, 0xd5, 0xef, 0xf6, 0x02, 0x34, 0x02, 0xf1, 0x0d, 0x0e, 0xf4,
  0x2c, 0x2c, 0x00, 0x07, 0x30, 0x07, 0x21, 0xf0, 0x32, 0x09, 0xe8, 0xf5,
  0x35, 0xf7, 0xf0, 0xf7, 0xed, 0x18, 0xfd, 0x39, 0xdb, 0x03, 0xc9, 0x24,
  0x31, 0xff, 0x39, 0x1d, 0xe4, 0x07, 0xf3, 0xda, 0x1b, 0xd2, 0x02, 0x0b,
  0xb4, 0x0e, 0xc8, 0x14, 0x25, 0xd0, 0xd6, 0xe0, 0xc6, 0xde, 0x05, 0x1b,
  0xf4, 0xdf, 0x0d, 0xea, 0x15, 0xbd, 0x06, 0xe7, 0x25, 0xb0, 0x08, 0xe5,
  0x2a, 0x08, 0xc4, 0xf0, 0xf5, 0x95, 0xd3, 0xef, 0xfa, 0xec, 0x15, 0xf7,
  0xca, 0xc6, 0xda, 0xc7, 0xc3, 0xdc, 0xf5, 0xfc, 0xf8, 0xf9, 0xdd, 0xb8,
  0x00, 0xa5, 0xe4, 0xce, 0xfe, 0x9e, 0xa1, 0x09, 0x1e, 0xbc, 0x06, 0xbe,
  0x13, 0xe5, 0x09, 0xc2, 0x1e, 0x0e, 0x24, 0xf7, 0xf1, 0x13, 0xe2, 0xc9,
  0x16, 0x1e, 0x2d, 0xfe, 0x25, 0x3c, 0x1e, 0xf6, 0x27, 0x1a, 0x0a, 0xdd,
  0xd5, 0x1f, 0xfe, 0x29, 0x0f, 0xcc, 0x22, 0xe9, 0xd6, 0xeb, 0xfc, 0x18,
  0x14, 0xc5, 0x13, 0x0c, 0x15, 0xf6, 0xd5, 0xe0, 0x08, 0xd5, 0xda, 0x0d,
  0x28, 0x1d, 0x1a, 0x15, 0x0e, 0x0e, 0xe7, 0xfa, 0x12, 0x04, 0x10, 0x03,
  0xf2, 0x07, 0xca, 0xc2, 0xe2, 0xe7, 0x38, 0x14, 0xf3, 0x1f, 0xd9, 0xf9,
  0x0b, 0xec, 0xde, 0xe3, 0x35, 0xd7, 0xf6, 0xd2, 0xf8, 0x1a, 0xeb, 0x1f,
  0x1a, 0x1e, 0xf0, 0x14, 0x1e, 0xeb, 0x25, 0x1b, 0xbf, 0x08, 0x15, 0x2c,
  0x1c, 0xa9, 0xea, 0xc0, 0xc3, 0x17, 0xd5, 0xeb, 0xde, 0xd8, 0xc4, 0xf2,
  0xcd, 0xef, 0x0f, 0xe4, 0xe8, 0x91, 0x08, 0xe4, 0x20, 0xd8, 0x0a, 0xc9,
  0x01, 0x9b, 0xe2, 0xd9, 0x0f, 0xd9, 0xbc, 0x27, 0x2a, 0xec, 0xd4, 0xad,
  0x22, 0xde, 0xf1, 0xdc, 0xfa, 0x9b, 0xde, 0xe4, 0xac, 0xa3, 0x17, 0x1f,
  0xff, 0xc7, 0xc2, 0xf3, 0xde, 0xc8, 0xe7, 0xbc, 0x04, 0xe1, 0xe2, 0xdc,
  0x00, 0xc4, 0x0d, 0xc8, 0x08, 0xfd, 0x10, 0xe6, 0x3a, 0xff, 0xda, 0xe7,
  0xca, 0x0b, 0xfa, 0xfb, 0x20, 0x08, 0xc8, 0xe1, 0xea, 0x40, 0xe2, 0x3a,
  0x3e, 0xf1, 0xea, 0xe9, 0x1a, 0x16, 0x1e, 0x1e, 0x0a, 0x03, 0xf7, 0xd3,
  0xfd, 0x1f, 0xeb, 0x0b, 0xd5, 0x25, 0x15, 0xcc, 0xef, 0x23, 0x33, 0xff,
  0x17, 0xe7, 0xfd, 0xe4, 0x14, 0x01, 0xe4, 0x0a, 0x2e, 0x39, 0x08, 0xd5,
  0xcc, 0x1f, 0xeb, 0xe0, 0x21, 0x2d, 0x24, 0x12, 0x01, 0x05, 0x3d, 0xbf,
  0x20, 0x22, 0xff, 0xdd, 0xe7, 0x1f, 0x00, 0x01, 0x3a, 0x27, 0xe1, 0x01,
  0xea, 0x1c, 0xdb, 0x38, 0xe9, 0x13, 0x0e, 0x10, 0xcf, 0x09, 0xfc, 0x24,
  0xfa, 0xe6, 0xfd, 0x10, 0xee, 0xc4, 0xf0, 0xf1, 0xc0, 0x05, 0xe8, 0xf0,
  0xf3, 0xd8, 0xc0, 0xd7, 0xc9, 0x0e, 0xe1, 0x1d, 0x21, 0xc3, 0xe2, 0x0c,
  0x05, 0x09, 0xf0, 0xd4, 0xdb, 0xf8, 0xf5, 0xe1, 0xe7, 0x0a, 0xec, 0x2a,
  0xff, 0xcd, 0xfa, 0xdd, 0x51, 0xf2, 0xdc, 0xec, 0xe7, 0xb6, 0xd0, 0x0c,
  0xeb, 0xd0, 0x16, 0x01, 0xd0, 0xbb, 0xff, 0xc1, 0x1f, 0xea, 0xf0, 0xc1,
  0x10, 0xae, 0xd7, 0xbc, 0x34, 0xb7, 0xf8, 0xd4, 0x0c, 0xbe, 0x03, 0xd8,
  0x4b, 0x01, 0x11, 0xef, 0xde, 0xec, 0xf8, 0x11, 0x24, 0x3d, 0x0a, 0x3d,
  0x18, 0x60, 0x26, 0xf8, 0x3d, 0x08, 0x07, 0xe1, 0x3a, 0x22, 0x14, 0x35,
  0x00, 0xf6, 0xeb, 0xeb, 0x01, 0xf4, 0x2b, 0x15, 0xfc, 0xfa, 0xec, 0x0a,
  0xfe, 0xfd, 0xfd, 0xd4, 0x2c, 0xf0, 0xec, 0x28, 0xe6, 0x25, 0x0a, 0xef,
  0x17, 0xfa, 0x02, 0x07, 0xec, 0x35, 0x0f, 0xe6, 0x0e, 0xfb, 0x2c, 0xde,
  0x1e, 0x11, 0x1a, 0xeb, 0x1a, 0xe1, 0x16, 0x20, 0x03, 0x0a, 0x0f, 0xff,
  0x23, 0xc9, 0x0d, 0xf6, 0x1f, 0xde, 0xf3, 0xf9, 0xe4, 0xfa, 0x13, 0x09,
  0xc0, 0xf7, 0x02, 0x10, 0xe9, 0xf5, 0x39, 0x33, 0x0c, 0xd7, 0xef, 0xcd,
  0xc5, 0xdc, 0x18, 0x01, 0xf6, 0xb7, 0xf4, 0xa9, 0xe3, 0xc8, 0x03, 0x0a,
  0x13, 0xc2, 0xd4, 0xcc, 0xfd, 0xfc, 0xe5, 0xd5, 0xfa, 0xd3, 0xf3, 0xd4,
  0x0b, 0x1e, 0x0b, 0xd3, 0xc9, 0xe4, 0xf3, 0xfe, 0x0f, 0x06, 0x1d, 0xf6,
  0xcf, 0xfc, 0x15, 0xf2, 0xfd, 0xd3, 0xee, 0xed, 0x00, 0xe4, 0xdb, 0xc5,
  0x11, 0xe1, 0x24, 0xe2, 0xd4, 0x9e, 0xeb, 0xcf, 0x52, 0xb8, 0xf8, 0x0c,
  0x30, 0x06, 0x2c, 0xe6, 0x19, 0x09, 0x2e, 0x0d, 0xd3, 0x3c, 0x08, 0xf0,
  0x19, 0xf8, 0xe8, 0x0f, 0xee, 0x0c, 0xf0, 0x05, 0x1a, 0xf5, 0x0f, 0x31,
  0x0d, 0x0f, 0x31, 0x1a, 0xe1, 0xde, 0x1e, 0xf1, 0x03, 0xf5, 0x0c, 0xeb,
  0xbf, 0x13, 0xfb, 0xfc, 0x04, 0x1d, 0xfe, 0x15, 0x1a, 0xe9, 0xfa, 0xff,
  0xd4, 0x22, 0x04, 0xf4, 0x05, 0x07, 0xf6, 0xff, 0x1c, 0x14, 0xe9, 0xfd,
  0xf5, 0xfb, 0x05, 0x23, 0x39, 0xd0, 0x39, 0x12, 0x2b, 0xfb, 0x17, 0x2f,
  0xf1, 0x10, 0xe7, 0xde, 0x13, 0xd8, 0x1f, 0x1b, 0x26, 0xfc, 0x08, 0x02,
  0xee, 0xe0, 0xdf, 0x0c, 0xd1, 0xc9, 0x18, 0x12, 0xe1, 0x0b, 0xd8, 0xee,
  0x03, 0xb6, 0xd2, 0x27, 0xdc, 0xd7, 0xd7, 0xe7, 0x27, 0xc9, 0xe9, 0xc7,
  0xbf, 0x0f, 0xf4, 0xf0, 0xcf, 0xe1, 0x20, 0xcd, 0x2d, 0xbf, 0xe3, 0xfe,
  0x13, 0xdc, 0xf2, 0xf2, 0x13, 0xd7, 0x20, 0xf7, 0xec, 0xf5, 0xd8, 0xd0,
  0xe8, 0x07, 0xec, 0xed, 0xc0, 0xc8, 0x2d, 0x01, 0x0d, 0xfa, 0xde, 0x0a,
  0x1b, 0x9d, 0xdc, 0xe9, 0xcc, 0xec, 0xe1, 0xf9, 0x15, 0xb1, 0xde, 0xfc,
  0x2a, 0x19, 0xef, 0xff, 0x04, 0xea, 0x01, 0x0b, 0x2b, 0x09, 0xed, 0xe5,
  0x01, 0x16, 0xd9, 0x17, 0x35, 0x30, 0xec, 0x22, 0x3b, 0xf8, 0x30, 0x00,
  0x30, 0xfe, 0x1d, 0x09, 0xef, 0x3f, 0x3a, 0x1a, 0xd5, 0xd8, 0xda, 0x33,
  0x1b, 0xf6, 0x02, 0x1a, 0xb9, 0x22, 0xeb, 0xfc, 0x24, 0x1d, 0x19, 0x0d,
  0x18, 0x05, 0xf7, 0x3a, 0xf6, 0xff, 0xe5, 0xc4, 0x15, 0xec, 0x11, 0x04,
  0xf0, 0xf7, 0x32, 0xe0, 0x04, 0x2a, 0xf8, 0x09, 0x1f, 0x04, 0xf9, 0xd7,
  0x08, 0x2c, 0x1c, 0x3b, 0xcc, 0xec, 0x0c, 0x0c, 0x3e, 0x32, 0xee, 0xfe,
  0xe6, 0x11, 0xfc, 0x05, 0xf8, 0x1c, 0xf7, 0x02, 0xe8, 0xdd, 0x3e, 0x09,
  0x2c, 0x07, 0xe8, 0xd8, 0xff, 0xb5, 0x03, 0xdd, 0xdb, 0xe7, 0xda, 0x0a,
  0xf8, 0xe6, 0xc4, 0x07, 0x0e, 0x02, 0xf1, 0xe9, 0xc1, 0xd0, 0xfc, 0xf3,
  0xe4, 0x04, 0x03, 0xba, 0xd5, 0xea, 0xf2, 0xea, 0x17, 0xea, 0x3a, 0xfc,
  0x03, 0xef, 0xd9, 0xe0, 0x24, 0x10, 0x1a, 0xec, 0xf3, 0xef, 0x32, 0xad,
  0xc9, 0x24, 0x04, 0x1d, 0x12, 0xf7, 0x20, 0xe6, 0xf9, 0x18, 0xf0, 0xfa,
  0xc2, 0x27, 0xeb, 0xf5, 0xdf, 0xc5, 0xbd, 0xec, 0xf8, 0xd1, 0xde, 0x25,
  0x25, 0x11, 0x34, 0xd2, 0x0c, 0x01, 0xe5, 0xdc, 0x1e, 0x37, 0xd7, 0xdc,
  0xfd, 0xf9, 0x46, 0xfe, 0xf9, 0xf7, 0xfb, 0x20, 0xf4, 0x15, 0x01, 0xf4,
  0x18, 0xc3, 0xf6, 0x03, 0x07, 0x05, 0x1a, 0x02, 0x05, 0xdb, 0xfd, 0x45,
  0xce, 0x39, 0x1d, 0x06, 0x03, 0xfa, 0xf3, 0x37, 0xdb, 0xfa, 0x0f, 0xca,
  0x0f, 0x39, 0xd8, 0xfc, 0x19, 0x1c, 0x0b, 0xe0, 0x21, 0x17, 0x03, 0x1e,
  0x3b, 0xe1, 0x41, 0x0d, 0x02, 0xff, 0x29, 0x18, 0xff, 0xfe, 0xdb, 0xe8,
  0xf0, 0xe6, 0x1b, 0x3a, 0xea, 0xc7, 0xf1, 0x09, 0x0f, 0x1f, 0x04, 0xf9,
  0xdb, 0xf3, 0x16, 0x2a, 0xe6, 0xd7, 0x01, 0x0e, 0xd7, 0x00, 0xf1, 0x41,
  0x19, 0xff, 0xe8, 0x2d, 0xde, 0xf6, 0x04, 0x2e, 0x0e, 0x0c, 0xfe, 0xed,
  0xf9, 0x1e, 0xfd, 0x0e, 0x0b, 0xfc, 0x0a, 0xee, 0x03, 0x01, 0x1f, 0x28,
  0x35, 0xfb, 0xfb, 0xef, 0x1a, 0x24, 0x2e, 0x2d, 0x0c, 0x14, 0x27, 0xfb,
  0x19, 0xe1, 0x16, 0x1c, 0xd8, 0x19, 0xf7, 0xf9, 0x1b, 0x2d, 0x0c, 0x19,
  0xf3, 0x08, 0x11, 0x0b, 0x2e, 0x21, 0x06, 0x08, 0xdb, 0x12, 0x3a, 0x11,
  0x20, 0xff, 0xc0, 0x26, 0xf1, 0xe3, 0xf3, 0x07, 0xe4, 0xf2, 0xe1, 0x08,
  0xff, 0xf9, 0x36, 0x11, 0x34, 0x1c, 0x31, 0x16, 0x1b, 0xff, 0x1c, 0xdc,
  0xfd, 0x0c, 0x01, 0x1d, 0x20, 0x07, 0x0f, 0x22, 0x0e, 0xc8, 0x17, 0x2c,
  0xe5, 0x17, 0x15, 0xe8, 0x07, 0xf0, 0x08, 0x44, 0xe2, 0xf4, 0xf7, 0xf2,
  0xfb, 0xcf, 0xed, 0x3a, 0xfa, 0x15, 0x17, 0x0c, 0x00, 0xf3, 0xfe, 0x21,
  0xc4, 0x1e, 0x3d, 0xf7, 0x2f, 0x37, 0x0b, 0x26, 0x05, 0xf8, 0xf3, 0x11,
  0x12, 0x00, 0x0f, 0xe6, 0xec, 0x3d, 0xfc, 0x1f, 0xdd, 0xf2, 0x1a, 0x3b,
  0xcc, 0xf4, 0x0f, 0x19, 0xf6, 0xdc, 0xd7, 0x1a, 0x1a, 0x08, 0x04, 0x15,
  0x2f, 0x12, 0xdc, 0x0a, 0xfd, 0xed, 0xe9, 0xfe, 0x2b, 0xf3, 0x13, 0x15,
  0xfd, 0xf6, 0xf6, 0x19, 0x15, 0x2a, 0xe2, 0x07, 0x0b, 0xec, 0xd1, 0x28,
  0x09, 0x0f, 0x14, 0x22, 0xff, 0x1d, 0xe8, 0x17, 0xf2, 0xd4, 0xd5, 0xf4,
  0x2a, 0xf6, 0x02, 0x16, 0xfc, 0x25, 0x0f, 0x17, 0x09, 0xf7, 0x1a, 0x0f,
  0xfb, 0xde, 0x35, 0x0b, 0xe1, 0xfd, 0xca, 0xe3, 0x2f, 0x18, 0xf0, 0x13,
  0xe8, 0xd4, 0x02, 0xea, 0x23, 0x0a, 0x0d, 0x41, 0x00, 0x29, 0x17, 0x01,
  0x14, 0xf7, 0xed, 0x25, 0xfe, 0x25, 0x0f, 0xe4, 0x31, 0x14, 0x0b, 0x32,
  0x1a, 0xf9, 0x3a, 0x0c, 0x04, 0xe8, 0x2a, 0x01, 0xfc, 0x17, 0x09, 0xeb,
  0x37, 0xf7, 0xdd, 0x16, 0xf5, 0x15, 0x2a, 0xe1, 0xf7, 0xfb, 0xec, 0x35,
  0x07, 0x20, 0x1d, 0x0a, 0x06, 0xf2, 0x0e, 0xf6, 0xdc, 0x00, 0x11, 0xf1,
  0x05, 0x0a, 0x18, 0x1b, 0x1e, 0xf3, 0xfd, 0xf3, 0xcd, 0xf8, 0xf0, 0x30,
  0xea, 0xea, 0xff, 0x1d, 0x32, 0x0f, 0x12, 0x02, 0xfe, 0x29, 0xf8, 0xf4,
  0xce, 0xf7, 0xd4, 0x22, 0xf7, 0x07, 0xc9, 0x19, 0xce, 0xec, 0x12, 0x14,
  0x18, 0xee, 0xd5, 0xcc, 0xe5, 0xe9, 0x04, 0x0e, 0x11, 0xf4, 0x06, 0xed,
  0x06, 0xfc, 0x2c, 0x27, 0xea, 0x04, 0xdc, 0xe5, 0xf3, 0xeb, 0x34, 0x1e,
  0xd6, 0x1b, 0xd9, 0xd0, 0xdc, 0x2d, 0xd0, 0xea, 0xf8, 0x0f, 0xe5, 0x10,
  0x09, 0x2c, 0xeb, 0xf3, 0x37, 0x31, 0xf1, 0xd3, 0xe7, 0xfa, 0x25, 0x25,
  0xeb, 0x39, 0x23, 0xfc, 0xf8, 0x0d, 0xfc, 0x47, 0xee, 0x1c, 0xc1, 0xdc,
  0xf9, 0x13, 0xe4, 0x18, 0x0f, 0xd6, 0xff, 0xc1, 0xe4, 0xf1, 0x0e, 0x36,
  0x06, 0x0f, 0x23, 0xf9, 0x38, 0x0c, 0xf9, 0x0f, 0x1a, 0xfc, 0xef, 0x00,
  0xd2, 0x0f, 0x31, 0xdd, 0x21, 0xdf, 0x18, 0xf4, 0x1b, 0x28, 0xf7, 0xf1,
  0x28, 0xe2, 0xe4, 0xda, 0xdf, 0xc9, 0x25, 0xfa, 0x1f, 0xc1, 0xf9, 0xd7,
  0x08, 0xef, 0xf2, 0xec, 0x07, 0xe4, 0xec, 0x12, 0x1a, 0x29, 0xe2, 0x02,
  0x17, 0xca, 0xe1, 0xe6, 0xd0, 0x0e, 0x36, 0x08, 0xf9, 0x29, 0x35, 0x0c,
  0xfa, 0xef, 0xf4, 0xed, 0x0b, 0xd7, 0xe3, 0x24, 0xe7, 0x04, 0xfe, 0xe4,
  0xf9, 0x2e, 0x01, 0x0f, 0x14, 0xcb, 0x08, 0x01, 0xf8, 0x1f, 0xd1, 0xc8,
  0x1b, 0x0a, 0xee, 0xfe, 0x28, 0xff, 0x01, 0x1c, 0x06, 0x2e, 0x08, 0xfc,
  0x0d, 0x16, 0x05, 0x31, 0x00, 0xfe, 0x33, 0x0b, 0xf0, 0xe2, 0xd1, 0xcf,
  0x0e, 0x29, 0x25, 0x01, 0x23, 0x28, 0x21, 0x1a, 0xd9, 0xf0, 0x0f, 0x0d,
  0x1d, 0xdb, 0x1a, 0xf8, 0xe2, 0x4f, 0x0a, 0x0f, 0x20, 0x04, 0x2a, 0x01,
  0x1b, 0x30, 0xf9, 0x3a, 0xdf, 0x4a, 0x3e, 0xf8, 0x0f, 0x14, 0xda, 0xf6,
  0x14, 0xf7, 0xea, 0x0a, 0xf0, 0xe3, 0xf7, 0x11, 0xf3, 0x2b, 0x18, 0xf0,
  0xed, 0x05, 0xf7, 0x1a, 0xef, 0xf1, 0xdf, 0xf2, 0x19, 0x2d, 0x0f, 0x0c,
  0x0a, 0x19, 0xd2, 0x03, 0xd6, 0xe9, 0xf2, 0xfe, 0x19, 0x0c, 0x01, 0x3e,
  0xfc, 0xc6, 0xd7, 0x17, 0x18, 0x2e, 0xe7, 0x32, 0x14, 0x09, 0x04, 0x0f,
  0x0b, 0x2a, 0xd2, 0xfa, 0x32, 0x07, 0x21, 0xf7, 0x11, 0xf3, 0x38, 0x0b,
  0x16, 0xec, 0xfe, 0x0a, 0x13, 0xff, 0x02, 0xf1, 0xeb, 0x13, 0xf1, 0x06,
  0xf0, 0xe7, 0xee, 0xfb, 0xd2, 0xee, 0xe9, 0x15, 0x18, 0x14, 0x2a, 0xda,
  0xee, 0x09, 0xfb, 0x23, 0x0b, 0x04, 0xfb, 0x00, 0x23, 0x0b, 0xf7, 0x19,
  0xf6, 0x0a, 0xf9, 0xdb, 0xc2, 0xd2, 0xdc, 0x15, 0x2d, 0xf0, 0xd8, 0x27,
  0xd3, 0x04, 0xe9, 0x07, 0xef, 0xe8, 0xcb, 0x0f, 0xf7, 0x2c, 0xec, 0x18,
  0x05, 0x1a, 0x1b, 0xf8, 0x11, 0x16, 0x02, 0x0e, 0x2f, 0x33, 0x03, 0xfc,
  0xe2, 0x2a, 0x36, 0xf6, 0x03, 0xfe, 0xfc, 0x11, 0x0b, 0x49, 0x13, 0xe5,
  0xe5, 0x16, 0xdf, 0xf0, 0xda, 0xe1, 0xdd, 0xfa, 0xfe, 0x34, 0x17, 0xf4,
  0xff, 0xf1, 0x06, 0xf1, 0xe5, 0x69, 0x22, 0x21, 0xe6, 0x04, 0xe1, 0xe9,
  0x07, 0x2e, 0xe8, 0x1b, 0xf2, 0xe4, 0x03, 0xfb, 0x1d, 0xf1, 0x3a, 0x25,
  0xf4, 0xf0, 0xcc, 0xe6, 0x02, 0x23, 0x03, 0x2a, 0x3b, 0xc2, 0xd7, 0x08,
  0x0c, 0xf5, 0xfd, 0xf4, 0xf8, 0x21, 0x30, 0xfa, 0x1b, 0x0b, 0xfe, 0x26,
  0x25, 0xd5, 0x14, 0x15, 0x1e, 0xfe, 0xf6, 0xfe, 0xf4, 0xcd, 0x14, 0x1d,
  0x31, 0xf3, 0xf6, 0xf7, 0x09, 0xf3, 0x04, 0xf4, 0x1a, 0x19, 0x0f, 0x1e,
  0x25, 0x22, 0x0d, 0xe5, 0x1b, 0xca, 0x11, 0xea, 0x17, 0xe3, 0xf2, 0x35,
  0x13, 0xe5, 0x28, 0xef, 0x27, 0xdc, 0x16, 0x34, 0x0e, 0xf7, 0xf4, 0x39,
  0x1f, 0xf4, 0x23, 0x1a, 0xef, 0xfb, 0xed, 0xfd, 0x22, 0xc6, 0x0c, 0xe5,
  0x46, 0x14, 0xec, 0xd9, 0x17, 0x09, 0x1e, 0xfe, 0x3a, 0xdf, 0x16, 0x05,
  0x1e, 0x06, 0x49, 0xfb, 0xd3, 0xf5, 0x28, 0x01, 0x15, 0xfd, 0x01, 0xf8,
  0x09, 0x35, 0x26, 0x1d, 0x10, 0x0b, 0x02, 0x03, 0x13, 0x3d, 0x34, 0x2a,
  0x01, 0x04, 0x04, 0xf0, 0xf4, 0xf7, 0x16, 0x1b, 0x29, 0x39, 0x19, 0xef,
  0xe8, 0x3e, 0x04, 0x2f, 0xee, 0xf9, 0x0f, 0x13, 0x10, 0x48, 0x0e, 0x01,
  0x11, 0x03, 0xcc, 0xef, 0xfb, 0x07, 0xf4, 0x24, 0xe0, 0xfc, 0xe3, 0xef,
  0xf5, 0x1f, 0x06, 0xff, 0xf1, 0x00, 0xdd, 0xed, 0xee, 0xf1, 0x28, 0x04,
  0x0c, 0x2b, 0xf7, 0x1d, 0xed, 0xd9, 0xfb, 0xfd, 0x03, 0xd4, 0xf7, 0xef,
  0x0e, 0xfa, 0x03, 0xe6, 0x1c, 0xfc, 0x27, 0xf0, 0x12, 0x22, 0xef, 0x2e,
  0x02, 0x09, 0x10, 0x10, 0xd2, 0x29, 0x03, 0xe9, 0xe3, 0xea, 0xf7, 0xfc,
  0xd9, 0x17, 0xee, 0xfc, 0xea, 0x0f, 0xe3, 0x12, 0x3f, 0xf1, 0xc0, 0xf8,
  0x33, 0xf4, 0xe3, 0x12, 0xfc, 0xdd, 0xcd, 0x31, 0x27, 0xfc, 0x41, 0x16,
  0xf9, 0xf3, 0xe3, 0x13, 0xee, 0xe9, 0xf3, 0xff, 0xf5, 0xf1, 0x08, 0xf6,
  0xed, 0xc7, 0x1e, 0xdc, 0x2b, 0x1b, 0xec, 0x0e, 0xee, 0xfc, 0x36, 0xf6,
  0x16, 0x22, 0x04, 0x2b, 0x0b, 0x13, 0x03, 0xeb, 0x18, 0xfb, 0x34, 0xf9,
  0xe7, 0x10, 0x17, 0x27, 0xe8, 0xef, 0xc7, 0x28, 0xf8, 0x20, 0x16, 0xf6,
  0x12, 0xeb, 0xe6, 0xf9, 0x06, 0x11, 0x23, 0x23, 0xe5, 0xe2, 0x13, 0x08,
  0xe2, 0xee, 0x1b, 0xea, 0x23, 0x4b, 0x13, 0xf6, 0xf6, 0xed, 0xf7, 0xf4,
  0xed, 0x63, 0x30, 0x25, 0xdc, 0xf6, 0xf7, 0x0a, 0xca, 0x33, 0x13, 0xfb,
  0x08, 0xe6, 0x1f, 0x13, 0xec, 0x22, 0x3d, 0x0f, 0xfe, 0xdb, 0x1f, 0xee,
  0xca, 0xe3, 0x28, 0xe7, 0x10, 0xfe, 0xd5, 0xfa, 0x1d, 0x23, 0xd2, 0x15,
  0xfb, 0xf1, 0x12, 0xf1, 0x18, 0x0d, 0xd6, 0xef, 0x16, 0x24, 0xe9, 0x03,
  0x27, 0xef, 0xf7, 0x1e, 0xfd, 0xeb, 0x0c, 0x19, 0x00, 0xf5, 0x10, 0xce,
  0x23, 0x07, 0xcf, 0x2b, 0x10, 0x0b, 0xe8, 0xf6, 0xf2, 0x1f, 0x17, 0x26,
  0x42, 0x20, 0xdb, 0xff, 0xfa, 0x0a, 0xfa, 0x35, 0xe8, 0x15, 0x29, 0x08,
  0x2e, 0xfb, 0x2f, 0xd6, 0xfa, 0xca, 0xd4, 0x26, 0x13, 0xff, 0xdb, 0x0f,
  0xeb, 0xea, 0x32, 0x02, 0x1d, 0x16, 0xd3, 0xee, 0x35, 0xd1, 0xec, 0xdc,
  0x11, 0xd1, 0x01, 0x1f, 0x11, 0xfe, 0x2c, 0xd6, 0x09, 0x37, 0xe9, 0xfe,
  0xef, 0x43, 0xf6, 0x21, 0xe9, 0x0b, 0xe9, 0x08, 0x23, 0x32, 0x20, 0x21,
  0xfe, 0x1d, 0x02, 0x13, 0x1d, 0xf2, 0x25, 0xf5, 0x39, 0x35, 0x3a, 0x06,
  0x0c, 0xf1, 0x00, 0x15, 0xfd, 0x29, 0xe7, 0xfa, 0xe7, 0x28, 0xf4, 0xd4,
  0x19, 0xd9, 0x16, 0x1c, 0xf3, 0x2c, 0x29, 0xea, 0x05, 0xee, 0xd6, 0x12,
  0xff, 0x2e, 0xfc, 0xfd, 0x02, 0xe1, 0xe0, 0xf6, 0x05, 0xd0, 0xfc, 0x20,
  0x20, 0xe7, 0xc9, 0x1e, 0xde, 0x0e, 0xea, 0x10, 0xea, 0xe8, 0xf4, 0x11,
  0xf3, 0xd8, 0x1b, 0xea, 0x2a, 0xf8, 0x2c, 0x0b, 0xfe, 0xe7, 0x0a, 0xe8,
  0x16, 0x29, 0x02, 0x02, 0x03, 0x03, 0x0e, 0x19, 0xfe, 0xf6, 0xfb, 0x01,
  0xf8, 0xf9, 0xe1, 0x03, 0x2c, 0xf9, 0x26, 0xfa, 0xf8, 0x06, 0x0a, 0xdd,
  0x02, 0xe9, 0xe1, 0xff, 0x06, 0x2d, 0xfa, 0xd8, 0xf6, 0xd1, 0x00, 0x2d,
  0xe4, 0x3b, 0x17, 0xd4, 0x10, 0xee, 0xcf, 0x0e, 0xeb, 0xe9, 0xc6, 0xfd,
  0xef, 0xc5, 0xf3, 0x00, 0x1c, 0x03, 0xe1, 0xe0, 0xf4, 0xc5, 0xc3, 0xef,
  0x1a, 0x16, 0x17, 0xdf, 0xde, 0xfd, 0x14, 0x2b, 0x28, 0xf6, 0x09, 0xf3,
  0xff, 0x0f, 0x4a, 0x18, 0xd2, 0x21, 0x28, 0xf5, 0x16, 0x16, 0x24, 0xf8,
  0x2c, 0xe2, 0x1a, 0x29, 0x1e, 0x3b, 0x20, 0xf4, 0x1f, 0x16, 0xfc, 0xda,
  0xf8, 0x12, 0x30, 0x1b, 0xf4, 0xf2, 0x03, 0xdf, 0xfd, 0x23, 0x44, 0xe1,
  0x2f, 0x4f, 0xe4, 0x17, 0x33, 0xdd, 0x2a, 0x25, 0xfa, 0x49, 0x26, 0x12,
  0xeb, 0xf6, 0x15, 0x14, 0x0c, 0xf9, 0xd3, 0x11, 0x29, 0x07, 0x2c, 0x1d,
  0x06, 0xcd, 0x1c, 0xe0, 0x1c, 0xd3, 0xdb, 0xf6, 0xef, 0x05, 0x2e, 0xd4,
  0xe1, 0x05, 0x0a, 0x30, 0xc3, 0x06, 0xfb, 0xbe, 0x0e, 0xbe, 0x0c, 0xe8,
  0x22, 0x13, 0xef, 0x08, 0x3f, 0x06, 0x05, 0xfa, 0x29, 0x13, 0x08, 0x23,
  0xde, 0xf8, 0xd9, 0x06, 0xf1, 0x1e, 0x00, 0xed, 0xed, 0x2a, 0xd5, 0xdd,
  0xef, 0x15, 0x17, 0xd6, 0xec, 0x3a, 0xe1, 0x0a, 0x3b, 0xf9, 0x10, 0xc5,
  0xf8, 0x2c, 0x24, 0xcd, 0xec, 0xe4, 0xf6, 0xe2, 0x04, 0x17, 0x0c, 0x04,
  0xec, 0x2a, 0xf5, 0xff, 0x24, 0xff, 0xdb, 0x03, 0xe6, 0x0b, 0x02, 0xee,
  0x0a, 0xcd, 0xfe, 0x0f, 0x2b, 0xd6, 0x08, 0xc5, 0x27, 0x13, 0x23, 0xde,
  0x11, 0x14, 0xf2, 0x02, 0x1b, 0x23, 0x11, 0xf4, 0xce, 0x12, 0xfb, 0x18,
  0x06, 0x15, 0x34, 0x03, 0x0a, 0x2d, 0xf0, 0xcf, 0x01, 0x47, 0x1b, 0x19,
  0x1a, 0xcf, 0xfc, 0x18, 0xfa, 0x06, 0x1f, 0x07, 0xbd, 0x06, 0xfa, 0xc8,
  0x14, 0x0a, 0x34, 0xfa, 0x06, 0x38, 0x32, 0x36, 0xf3, 0x26, 0xfe, 0x22,
  0x25, 0x0e, 0xed, 0x0f, 0x06, 0x1c, 0xed, 0x10, 0xd7, 0x12, 0xea, 0x05,
  0x08, 0x07, 0x25, 0x13, 0x0c, 0xdf, 0x05, 0xe8, 0xea, 0x12, 0xec, 0x15,
  0xff, 0x13, 0x05, 0x12, 0x0b, 0xfe, 0xf3, 0x07, 0xc1, 0xe0, 0x13, 0x06,
  0x0a, 0x08, 0xfd, 0xe7, 0x3c, 0x09, 0xf7, 0xd5, 0x2b, 0x04, 0xce, 0x19,
  0x2c, 0xdd, 0x22, 0x2e, 0x39, 0xfe, 0xf6, 0xf9, 0xf9, 0x09, 0x3e, 0x12,
  0xdb, 0x15, 0xf3, 0xee, 0x07, 0xd7, 0xdf, 0x36, 0x37, 0xd8, 0x26, 0xf6,
  0xfe, 0xe5, 0xfd, 0x2a, 0xe7, 0xfe, 0x18, 0xcf, 0x09, 0xe3, 0xd1, 0x33,
  0xf0, 0xd2, 0x1d, 0x08, 0x0a, 0x27, 0xd3, 0xdb, 0x20, 0xd1, 0x24, 0xfc,
  0xe7, 0xe9, 0x04, 0x1d, 0xc5, 0xf9, 0xb5, 0x03, 0x2c, 0x11, 0xe8, 0x0e,
  0xfa, 0xfc, 0x2b, 0xe5, 0x1e, 0xfb, 0xf8, 0xe0, 0x19, 0x2b, 0x38, 0xe2,
  0xdf, 0x1c, 0x1b, 0x0d, 0xfc, 0x48, 0xfb, 0x02, 0x03, 0x3a, 0xde, 0x34,
  0x25, 0x22, 0x34, 0x1c, 0x4b, 0x0a, 0xde, 0x27, 0x1f, 0x41, 0x4d, 0xe4,
  0xfc, 0xf4, 0xfd, 0xf3, 0xe9, 0x28, 0x17, 0x24, 0x18, 0x45, 0xf6, 0x3f,
  0x0b, 0x0b, 0xf8, 0x05, 0x15, 0x0d, 0xfe, 0xf3, 0xec, 0x01, 0x1e, 0x0a,
  0x0d, 0x46, 0xff, 0xe8, 0x05, 0x10, 0xd3, 0x29, 0x02, 0x1d, 0x0a, 0x04,
  0x39, 0xda, 0xec, 0x1d, 0xc5, 0x21, 0x37, 0xe4, 0x0e, 0xe5, 0xf3, 0x01,
  0xc8, 0xe9, 0xdf, 0xd1, 0x0d, 0xe6, 0x08, 0x00, 0x1d, 0xd3, 0x1f, 0xda,
  0x09, 0xea, 0x12, 0x02, 0x30, 0xe5, 0xc2, 0xd1, 0x2d, 0x19, 0xfe, 0xfb,
  0xf6, 0xf2, 0xe0, 0xdf, 0xd7, 0xf6, 0x2e, 0x05, 0x1f, 0x13, 0x24, 0xd9,
  0x12, 0x05, 0xfe, 0x0d, 0x20, 0x04, 0x00, 0xf1, 0xef, 0x0f, 0x17, 0x1c,
  0x1d, 0x0b, 0x0c, 0xd7, 0x12, 0xdd, 0xcf, 0xff, 0xfa, 0x26, 0x14, 0x01,
  0x1f, 0xde, 0x01, 0x0d, 0x38, 0xf5, 0xec, 0xdf, 0xdc, 0xf9, 0xed, 0x00,
  0x53, 0xfa, 0xd3, 0xf6, 0xcb, 0xcd, 0xc9, 0xe2, 0x49, 0x14, 0x02, 0xd2,
  0xec, 0x3d, 0x27, 0xfa, 0xfc, 0x2b, 0x33, 0xe2, 0x0d, 0xf5, 0x14, 0xdb,
  0x18, 0xff, 0xfc, 0x26, 0x2a, 0x27, 0x05, 0x1d, 0x16, 0xfe, 0x01, 0xf8,
  0xe4, 0x17, 0x10, 0x04, 0xdf, 0x11, 0xdd, 0xdb, 0xc8, 0x30, 0x39, 0xfd,
  0x11, 0x72, 0x39, 0x27, 0x34, 0xec, 0x26, 0x0c, 0xe5, 0x27, 0x0c, 0x16,
  0xf0, 0x14, 0xff, 0x13, 0xdd, 0x45, 0x04, 0x0d, 0xe9, 0x23, 0xf5, 0x1e,
  0x0c, 0xed, 0x1e, 0xdd, 0x2b, 0xdb, 0x08, 0x03, 0xd9, 0x07, 0xe0, 0xf1,
  0xf1, 0xdc, 0x2a, 0xf5, 0xb7, 0xef, 0x16, 0xe6, 0x31, 0xd2, 0xff, 0xf2,
  0x44, 0x00, 0xe6, 0xe0, 0x0a, 0xf1, 0x13, 0x07, 0x16, 0xe9, 0x13, 0xfe,
  0xf3, 0x12, 0x09, 0x01, 0xdf, 0x25, 0x35, 0x0b, 0xd6, 0x11, 0xdc, 0x02,
  0x34, 0x35, 0x1c, 0xf7, 0xea, 0x0b, 0x12, 0xf9, 0x4c, 0x00, 0x07, 0xcb,
  0xfa, 0x1f, 0xd9, 0xf5, 0xf0, 0x1b, 0x0e, 0x03, 0x1d, 0xed, 0xfd, 0x0d,
  0x09, 0xe9, 0x11, 0xf3, 0xec, 0xab, 0xe0, 0x01, 0xc6, 0x23, 0xf9, 0xdb,
  0x28, 0xc0, 0xd0, 0xf2, 0xed, 0xf1, 0x04, 0x10, 0x12, 0xe1, 0x09, 0xd3,
  0x58, 0x18, 0x1e, 0x02, 0xde, 0xe2, 0x04, 0x0b, 0xdd, 0xe1, 0xf5, 0x1c,
  0x13, 0x1f, 0x12, 0xd8, 0x37, 0x04, 0x24, 0xed, 0xf5, 0x55, 0x1b, 0x14,
  0x49, 0xfe, 0x1c, 0x16, 0xd0, 0x30, 0x6b, 0xf7, 0xf0, 0x1f, 0x09, 0x0b,
  0x32, 0x2a, 0x2c, 0x0a, 0x13, 0x35, 0xf5, 0x14, 0xf3, 0xfd, 0x1d, 0x37,
  0x0b, 0x12, 0x0d, 0x36, 0xf6, 0xf5, 0xe4, 0x0c, 0xd6, 0x39, 0x08, 0xdc,
  0xcf, 0x01, 0x1c, 0x0e, 0xc8, 0xff, 0x32, 0xfc, 0xf3, 0xfe, 0x15, 0xfc,
  0xcb, 0x13, 0x0a, 0xe9, 0xee, 0xd8, 0xf3, 0x03, 0x09, 0x10, 0xf9, 0x1b,
  0xe4, 0xe1, 0xd5, 0xf3, 0x11, 0x09, 0x11, 0x15, 0xd1, 0x00, 0x19, 0x07,
  0x51, 0xf2, 0x02, 0xff, 0xf5, 0xfc, 0xf7, 0xee, 0xde, 0x0b, 0xe9, 0x07,
  0x04, 0xf9, 0xcd, 0xfa, 0xfb, 0xf8, 0xe3, 0x03, 0xdb, 0x2e, 0x22, 0x1b,
  0x0d, 0x07, 0xea, 0x04, 0xef, 0xfe, 0x09, 0x34, 0xde, 0xd9, 0xf4, 0xc4,
  0x0a, 0xf5, 0x0f, 0x17, 0x14, 0xd8, 0xf7, 0x10, 0x1c, 0xb5, 0xff, 0xf2,
  0xe9, 0x28, 0xde, 0x1e, 0x2c, 0xf5, 0x05, 0xee, 0x03, 0xdb, 0xe6, 0xdb,
  0xdb, 0x01, 0xca, 0xd3, 0x3c, 0xd3, 0x13, 0x08, 0xea, 0x10, 0x31, 0xfc,
  0x0a, 0xfa, 0x1e, 0x12, 0x1f, 0x2d, 0x13, 0xc6, 0x30, 0x31, 0xf7, 0x07,
  0xef, 0x2e, 0x14, 0xdb, 0x47, 0x0d, 0x02, 0x35, 0xfd, 0x09, 0x3b, 0x0a,
  0x08, 0xed, 0xf8, 0x24, 0x0c, 0x4e, 0x0b, 0x12, 0x39, 0x50, 0xc1, 0x11,
  0xdc, 0x13, 0x0d, 0x29, 0xe8, 0x1d, 0xef, 0x38, 0x1b, 0x09, 0x23, 0x0e,
  0xff, 0x1f, 0x0b, 0xeb, 0xc1, 0x0b, 0x05, 0x31, 0xef, 0x0c, 0x33, 0xe0,
  0x2a, 0xee, 0xe0, 0x07, 0xc4, 0x06, 0x09, 0x0c, 0x23, 0xd4, 0x04, 0x1d,
  0xfb, 0xd5, 0x0d, 0x16, 0x0c, 0xbe, 0xdb, 0xe3, 0x1a, 0xba, 0xd9, 0x0f,
  0x1b, 0xf0, 0xf5, 0xfc, 0x3e, 0xa3, 0xed, 0x0e, 0xfe, 0x17, 0x01, 0xf6,
  0x07, 0xf3, 0x3b, 0xea, 0xed, 0x14, 0xe4, 0x35, 0xea, 0xdc, 0x26, 0x19,
  0xe3, 0x21, 0x08, 0x2b, 0x26, 0xf1, 0xfb, 0x20, 0x2a, 0x05, 0xf2, 0x28,
  0x07, 0xfd, 0x08, 0xed, 0x39, 0x27, 0xe0, 0xdf, 0x07, 0xcc, 0xd4, 0x17,
  0x1c, 0xc4, 0x08, 0x09, 0xfe, 0x07, 0xf0, 0xfe, 0xe1, 0xf2, 0xb5, 0xe1,
  0xfc, 0x1e, 0xf0, 0xd5, 0x29, 0xf5, 0xe0, 0xc6, 0x3b, 0x15, 0x0c, 0x05,
  0x19, 0x06, 0xfd, 0xc1, 0xd4, 0xfc, 0xeb, 0x0b, 0x0a, 0x16, 0x03, 0xb0,
  0x4e, 0x0e, 0x17, 0x04, 0x24, 0x4c, 0x17, 0x0c, 0x16, 0xf9, 0xf9, 0x15,
  0x18, 0xfb, 0x38, 0x0f, 0xdc, 0x26, 0xfc, 0x01, 0x23, 0x02, 0x24, 0x0a,
  0x51, 0x51, 0x14, 0xfc, 0x1b, 0x29, 0xe5, 0x1c, 0xfb, 0x5f, 0x08, 0x41,
  0x09, 0x30, 0x03, 0x01, 0xe5, 0x1a, 0xf1, 0x03, 0xf5, 0x15, 0xf0, 0x0c,
  0xf4, 0xef, 0x0e, 0xda, 0xf7, 0x03, 0x17, 0xf5, 0xfc, 0x1a, 0x36, 0xf2,
  0x29, 0xd8, 0xd0, 0xd9, 0xe7, 0x09, 0x24, 0x05, 0x19, 0xe6, 0xc4, 0xe9,
  0xf4, 0xf5, 0x0c, 0xca, 0xfe, 0xe7, 0xc3, 0xed, 0x17, 0xf5, 0xe3, 0xf1,
  0xd7, 0x01, 0x29, 0xf7, 0xdf, 0xf8, 0x16, 0x02, 0x2d, 0xf9, 0xf7, 0x27,
  0x12, 0x10, 0x03, 0x07, 0x13, 0x11, 0x04, 0x18, 0x1c, 0xfc, 0xcc, 0x04,
  0x0f, 0x35, 0xe0, 0x26, 0x02, 0xfc, 0x1d, 0x06, 0xf9, 0x25, 0xe0, 0x06,
  0x01, 0x2a, 0x17, 0xe4, 0x0a, 0xcc, 0xd1, 0x10, 0x03, 0x10, 0x00, 0x16,
  0x2a, 0xab, 0xac, 0xdf, 0x0b, 0xd7, 0x37, 0xb4, 0xe4, 0xe6, 0xe7, 0xe6,
  0x4a, 0x01, 0xf9, 0xeb, 0x2c, 0x23, 0x27, 0xd3, 0x08, 0x0f, 0x17, 0x3a,
  0x1d, 0x0f, 0x33, 0xcf, 0xf3, 0x36, 0xfa, 0x18, 0x32, 0x2d, 0x0e, 0xf8,
  0xf1, 0x1e, 0x1c, 0x08, 0x32, 0x45, 0x6c, 0xe7, 0xbd, 0x08, 0x19, 0xe0,
  0x09, 0x41, 0x05, 0x0e, 0x07, 0x5c, 0x02, 0x14, 0x03, 0x3f, 0x1d, 0x42,
  0x10, 0x3f, 0x19, 0xdd, 0xf5, 0x1a, 0x06, 0xf8, 0xe2, 0x3c, 0xf7, 0x1b,
  0xec, 0x18, 0x0e, 0xe8, 0xe5, 0x35, 0xfd, 0xf5, 0x18, 0xec, 0xd4, 0xd6,
  0xde, 0x1c, 0x15, 0xdb, 0x27, 0xe7, 0xde, 0xc6, 0xcd, 0x0a, 0x0c, 0xf3,
  0x07, 0xd5, 0xf0, 0xeb, 0xfd, 0xcf, 0x11, 0xf4, 0xf2, 0xdd, 0xff, 0xed,
  0x14, 0xec, 0x27, 0x18, 0xd8, 0x0b, 0x01, 0x13, 0xe5, 0x0e, 0x0a, 0xe9,
  0xea, 0x11, 0x04, 0x36, 0x2f, 0x05, 0xde, 0x34, 0xf3, 0x07, 0xd7, 0x14,
  0x16, 0x06, 0x03, 0x0d, 0xed, 0xed, 0xde, 0x38, 0xff, 0xf0, 0xf7, 0x03,
  0xef, 0xe8, 0x0b, 0x1d, 0x0a, 0x00, 0xe9, 0x40, 0x1c, 0xab, 0xd5, 0xd4,
  0xdb, 0xf2, 0x03, 0xd9, 0x1a, 0xd7, 0xdb, 0xcb, 0x51, 0x0d, 0x00, 0xcf,
  0xc2, 0xea, 0xde, 0x91, 0x38, 0xe0, 0x03, 0x14, 0x25, 0x1b, 0x4c, 0xdd,
  0xee, 0x1b, 0xde, 0x39, 0x24, 0x2c, 0xdb, 0xd3, 0x27, 0x10, 0x2d, 0xdd,
  0x0d, 0x19, 0x20, 0xdd, 0x46, 0x0d, 0xfc, 0x08, 0xec, 0x30, 0x50, 0x30,
  0xda, 0xf9, 0x3b, 0xce, 0xf5, 0x1e, 0x29, 0xf8, 0xfe, 0x57, 0x02, 0x14,
  0x2e, 0x00, 0xf1, 0x24, 0x18, 0x43, 0xe9, 0x02, 0x0d, 0x10, 0xfd, 0xed,
  0xe2, 0x0a, 0x05, 0x1d, 0x05, 0x04, 0x1f, 0xf7, 0xc7, 0xe1, 0x08, 0x1b,
  0xd5, 0xca, 0x16, 0xf9, 0xd2, 0xfc, 0x23, 0xff, 0x15, 0xae, 0xdc, 0xef,
  0xd8, 0x06, 0x15, 0x34, 0x35, 0x02, 0x10, 0xdc, 0x41, 0xec, 0xf1, 0xdd,
  0x01, 0x04, 0x03, 0x18, 0x56, 0x05, 0x05, 0xfb, 0x0a, 0xf1, 0x14, 0x01,
  0xc1, 0x56, 0xfb, 0x2b, 0x12, 0xfc, 0x1e, 0x38, 0x18, 0x2f, 0x04, 0xde,
  0x0e, 0x06, 0x13, 0x2f, 0x10, 0x04, 0x10, 0x2b, 0xe2, 0x4b, 0xe9, 0x35,
  0x10, 0xf7, 0xc5, 0xc4, 0xee, 0xf7, 0x10, 0x02, 0x12, 0x2a, 0x1b, 0x03,
  0xd8, 0xf7, 0xdf, 0xfc, 0xd0, 0xfd, 0x0e, 0xcc, 0x08, 0xcf, 0xac, 0xa9,
  0x0d, 0xfb, 0xef, 0x01, 0xf7, 0x16, 0xfe, 0xbd, 0x49, 0xfb, 0x0a, 0xcc,
  0x00, 0x08, 0x26, 0xca, 0xf4, 0x19, 0x1b, 0x26, 0x00, 0x1c, 0x05, 0xe7,
  0x36, 0x17, 0x14, 0x15, 0x3d, 0x5a, 0x16, 0xdd, 0x05, 0xfa, 0x0c, 0x13,
  0xf7, 0x13, 0x03, 0xe7, 0xcd, 0xed, 0x25, 0x0c, 0x2c, 0x1d, 0x07, 0x23,
  0x23, 0x32, 0xf6, 0x0c, 0x14, 0x24, 0x2f, 0xf6, 0xd1, 0x44, 0xe8, 0x37,
  0xfc, 0x41, 0x28, 0x13, 0xcb, 0x2f, 0xfb, 0x15, 0x09, 0x03, 0xe8, 0x1a,
  0xfc, 0xe7, 0xfc, 0x07, 0x1a, 0xc3, 0x07, 0xda, 0xe3, 0x1b, 0x0e, 0x19,
  0x05, 0xa5, 0xdb, 0x10, 0xd8, 0xc7, 0x16, 0x15, 0x34, 0xf9, 0xfb, 0xd4,
  0x0c, 0x09, 0x08, 0x05, 0xf8, 0x05, 0xe7, 0x02, 0x39, 0xf9, 0xdb, 0x0c,
  0xd5, 0xfe, 0x09, 0xef, 0x17, 0x3a, 0xe9, 0x3e, 0xd1, 0xfc, 0x04, 0x0d,
  0xf9, 0xd9, 0x0d, 0x15, 0xe3, 0x24, 0x10, 0x20, 0x03, 0xea, 0x0a, 0xeb,
  0x02, 0x14, 0x01, 0x2a, 0xfa, 0x09, 0xca, 0x2e, 0x05, 0x36, 0xfe, 0x06,
  0x08, 0xf7, 0x18, 0x09, 0x09, 0xc1, 0x02, 0x09, 0xfd, 0x1f, 0xd9, 0xe8,
  0xf1, 0xdb, 0xdb, 0xf3, 0x2c, 0xfc, 0xea, 0xde, 0x0c, 0xfc, 0xe5, 0xd7,
  0x52, 0xf2, 0x39, 0xdf, 0x12, 0x2f, 0x35, 0xc0, 0xf5, 0x2f, 0xcf, 0xfc,
  0xed, 0x14, 0x17, 0xe7, 0xf2, 0x35, 0x15, 0x26, 0x06, 0x1e, 0x0e, 0xe0,
  0xe0, 0xf1, 0x40, 0xd3, 0x08, 0x0e, 0x16, 0x3e, 0x23, 0x19, 0x04, 0xec,
  0x36, 0x07, 0x34, 0xf3, 0x4a, 0x61, 0x02, 0x33, 0xe4, 0x24, 0x2e, 0x25,
  0x24, 0x37, 0xff, 0x12, 0xdc, 0x1f, 0x08, 0xf1, 0xd6, 0x5f, 0x24, 0x0b,
  0xf1, 0x04, 0x39, 0xfd, 0xdf, 0xe9, 0xf6, 0xcf, 0xcd, 0xe2, 0xd3, 0xf1,
  0xdf, 0xd5, 0x07, 0xbb, 0x0d, 0xe8, 0xdd, 0xb9, 0x1b, 0x16, 0xed, 0x06,
  0xdf, 0xe9, 0xe3, 0xf4, 0xe9, 0xfa, 0xe3, 0xef, 0x19, 0xda, 0x0b, 0xbe,
  0x28, 0x17, 0xe3, 0x1c, 0x0d, 0x12, 0xe1, 0xe8, 0x00, 0x10, 0x0e, 0x16,
  0xfd, 0x23, 0xfa, 0x1f, 0xd9, 0xf9, 0xf6, 0xe9, 0x19, 0x38, 0xd2, 0x08,
  0xf3, 0xc5, 0x0e, 0x10, 0x0b, 0x27, 0xfe, 0x2e, 0x01, 0xf1, 0xff, 0x09,
  0xfd, 0x37, 0xdf, 0x18, 0x0a, 0x07, 0x15, 0xe0, 0xef, 0xcd, 0xf0, 0xf6,
  0xcb, 0xd9, 0xe5, 0xc3, 0xda, 0xb9, 0xff, 0xa4, 0x07, 0xfc, 0xfc, 0xbf,
  0xfa, 0xc8, 0x0b, 0xbf, 0x58, 0xfc, 0xd4, 0x0a, 0x09, 0x21, 0x20, 0xc6,
  0xd2, 0x2b, 0xc3, 0xf8, 0x16, 0x13, 0xdc, 0xa3, 0xfc, 0x11, 0xe5, 0xed,
  0xf0, 0xef, 0xce, 0xed, 0xf1, 0x02, 0xf8, 0x2e, 0x0c, 0x3a, 0x45, 0x44,
  0xf6, 0x35, 0x03, 0x07, 0x0b, 0x1c, 0xee, 0xfa, 0x2d, 0x54, 0xf0, 0x34,
  0xf1, 0x37, 0x48, 0x4c, 0x00, 0x25, 0x14, 0x20, 0x01, 0xf1, 0xe3, 0x40,
  0xd4, 0x46, 0xfc, 0xfc, 0x1c, 0xc9, 0x16, 0x36, 0xe0, 0xf3, 0x04, 0xce,
  0x18, 0x9f, 0xe7, 0xf1, 0xee, 0xe7, 0x1e, 0x0b, 0xe8, 0xbe, 0xea, 0xee,
  0xe4, 0x14, 0xdf, 0x04, 0xfc, 0xc5, 0xcc, 0xd2, 0x02, 0x15, 0xdf, 0xca,
  0xd7, 0x1a, 0xee, 0xee, 0x42, 0xfe, 0xfe, 0xfc, 0xfb, 0x09, 0xd7, 0xff,
  0x31, 0x24, 0x28, 0xeb, 0xe3, 0x0e, 0x0c, 0x36, 0x2e, 0x11, 0x1b, 0x03,
  0xf2, 0x2f, 0xfa, 0x22, 0x2d, 0xe1, 0xfd, 0x21, 0xf7, 0x2d, 0xe1, 0x5b,
  0xd0, 0xf5, 0xf7, 0xe0, 0x29, 0xf6, 0xe3, 0xf1, 0x17, 0x20, 0x13, 0x25,
  0xfd, 0xea, 0x00, 0xe5, 0xe7, 0x10, 0xeb, 0xf5, 0xe9, 0xa3, 0xb7, 0xd9,
  0x08, 0xed, 0x14, 0xc5, 0xf8, 0x1b, 0xef, 0xd2, 0x6f, 0x1a, 0x0f, 0x1c,
  0xd8, 0x09, 0x12, 0xac, 0x0a, 0x20, 0xe7, 0x14, 0x13, 0xf5, 0x1d, 0xcb,
  0xe7, 0xf5, 0xe1, 0x00, 0xe2, 0xff, 0x05, 0xe2, 0xfb, 0x07, 0xfe, 0x0f,
  0x38, 0xfa, 0x50, 0xf1, 0x0b, 0x0d, 0x0d, 0x17, 0xee, 0x29, 0x1b, 0x0b,
